<unk>	0
<s>	0
</s>	0
��	-0
▁��	-1
▁����	-2
▁�	-3
▁t	-4
▁������	-5
���	-6
▁a	-7
he	-8
in	-9
re	-10
ou	-11
▁���	-12
▁the	-13
▁w	-14
�.	-15
▁s	-16
on	-17
▁c	-18
▁�����	-19
er	-20
▁m	-21
is	-22
▁I	-23
at	-24
▁b	-25
an	-26
����	-27
▁to	-28
or	-29
▁f	-30
▁p	-31
en	-32
it	-33
▁"	-34
ing	-35
▁y	-36
▁d	-37
le	-38
▁��������	-39
▁you	-40
▁o	-41
▁h	-42
es	-43
▁an	-44
ed	-45
."	-46
ll	-47
▁th	-48
▁in	-49
as	-50
ar	-51
▁of	-52
▁is	-53
om	-54
▁l	-55
▁n	-56
ve	-57
▁g	-58
▁and	-59
▁be	-60
ic	-61
�����	-62
ion	-63
us	-64
▁re	-65
▁T	-66
al	-67
▁e	-68
���.	-69
ow	-70
ent	-71
ot	-72
ay	-73
et	-74
ct	-75
▁for	-76
ro	-77
▁it	-78
▁on	-79
▁ha	-80
ce	-81
ld	-82
im	-83
ly	-84
▁that	-85
ke	-86
id	-87
▁me	-88
▁we	-89
st	-90
▁The	-91
▁st	-92
ver	-93
ut	-94
oo	-95
ith	-96
ch	-97
▁with	-98
am	-99
ore	-100
ill	-101
ri	-102
▁are	-103
▁W	-104
gh	-105
ation	-106
if	-107
un	-108
▁have	-109
▁my	-110
▁pro	-111
ter	-112
▁he	-113
������	-114
ir	-115
ad	-116
�."	-117
▁can	-118
ur	-119
end	-120
▁your	-121
out	-122
▁wh	-123
▁as	-124
▁will	-125
se	-126
▁do	-127
▁at	-128
ould	-129
▁this	-130
ant	-131
▁com	-132
▁S	-133
pp	-134
▁con	-135
▁li	-136
▁was	-137
▁so	-138
���?	-139
▁ne	-140
▁1	-141
▁not	-142
ase	-143
her	-144
▁P	-145
all	-146
▁A	-147
▁C	-148
▁sh	-149
il	-150
ck	-151
ge	-152
▁se	-153
▁�������	-154
op	-155
ra	-156
ble	-157
▁de	-158
ght	-159
▁M	-160
▁ex	-161
▁����������	-162
يٴ	-163
est	-164
ul	-165
ate	-166
▁us	-167
▁K	-168
▁H	-169
ment	-170
▁go	-171
▁or	-172
▁wor	-173
rom	-174
▁k	-175
▁le	-176
▁ch	-177
hen	-178
lease	-179
▁It	-180
du	-181
ers	-182
▁ma	-183
▁2	-184
ure	-185
th	-186
qu	-187
oun	-188
▁ab	-189
our	-190
ust	-191
ive	-192
▁like	-193
ess	-194
�,	-195
▁v	-196
ood	-197
ime	-198
ss	-199
▁from	-200
▁D	-201
ol	-202
�?	-203
▁al	-204
▁Th	-205
art	-206
▁Y	-207
ome	-208
and	-209
ort	-210
ry	-211
ig	-212
ong	-213
▁want	-214
one	-215
▁Kore	-216
▁by	-217
▁time	-218
▁B	-219
▁su	-220
ist	-221
el	-222
▁am	-223
ain	-224
▁comp	-225
▁�׷	-226
ice	-227
ard	-228
very	-229
▁We	-230
▁pl	-231
▁but	-232
▁bec	-233
▁about	-234
use	-235
▁"�	-236
▁mo	-237
ity	-238
ink	-239
ren	-240
�������	-241
now	-242
day	-243
pe	-244
▁un	-245
▁there	-246
um	-247
ud	-248
up	-249
der	-250
▁j	-251
ast	-252
ally	-253
▁te	-254
ook	-255
any	-256
duct	-257
ause	-258
▁get	-259
▁"����	-260
red	-261
▁if	-262
▁when	-263
▁know	-264
▁ta	-265
▁work	-266
▁Please	-267
▁You	-268
▁�̰	-269
▁E	-270
ame	-271
fe	-272
▁product	-273
ie	-274
▁has	-275
ٰ�	-276
▁������.	-277
▁L	-278
▁Wh	-279
em	-280
▁r	-281
▁cl	-282
▁ģ	-283
▁all	-284
▁think	-285
̿���.	-286
▁3	-287
age	-288
ind	-289
▁pre	-290
fter	-291
ous	-292
ide	-293
▁don	-294
os	-295
▁because	-296
▁ad	-297
riend	-298
ies	-299
ack	-300
iv	-301
▁up	-302
▁lo	-303
▁any	-304
▁fe	-305
ays	-306
▁Ȯ	-307
߽��	-308
▁J	-309
act	-310
▁would	-311
▁now	-312
▁good	-313
ish	-314
ther	-315
ac	-316
ight	-317
▁int	-318
▁cont	-319
▁out	-320
▁one	-321
▁�ʿ	-322
▁im	-323
▁Korea	-324
▁pe	-325
cc	-326
▁�׷���	-327
ople	-328
▁This	-329
00	-330
▁ar	-331
per	-332
ci	-333
▁more	-334
▁who	-335
▁�׸	-336
▁ag	-337
The	-338
?"	-339
▁po	-340
ine	-341
If	-342
▁ȸ	-343
ough	-344
▁�ʾ	-345
▁our	-346
▁friend	-347
▁after	-348
iz	-349
ang	-350
▁che	-351
▁�̷	-352
ip	-353
▁people	-354
ount	-355
▁app	-356
▁need	-357
ile	-358
ep	-359
وٴ	-360
▁tr	-361
߾���.	-362
ear	-363
ass	-364
▁make	-365
ace	-366
ven	-367
▁en	-368
irst	-369
▁F	-370
orm	-371
▁co	-372
▁����.	-373
▁sa	-374
▁qu	-375
���."	-376
ue	-377
able	-378
▁G	-379
ult	-380
▁send	-381
▁res	-382
are	-383
ans	-384
ich	-385
ag	-386
ound	-387
port	-388
▁What	-389
▁should	-390
▁other	-391
ite	-392
ated	-393
so	-394
▁been	-395
ak	-396
rent	-397
▁�ʹ	-398
ance	-399
▁stud	-400
▁N	-401
▁�̹	-402
ap	-403
▁what	-404
▁did	-405
▁pr	-406
▁"��	-407
▁����,	-408
▁they	-409
ail	-410
ber	-411
▁gr	-412
ign	-413
▁some	-414
▁My	-415
ach	-416
▁than	-417
ick	-418
▁There	-419
▁�׵	-420
ition	-421
▁�̰���	-422
▁part	-423
�����.	-424
ress	-425
▁no	-426
ater	-427
▁first	-428
od	-429
▁5	-430
ool	-431
ek	-432
▁Do	-433
▁very	-434
xt	-435
▁going	-436
▁dif	-437
form	-438
▁just	-439
▁check	-440
ings	-441
▁take	-442
▁"������	-443
ade	-444
▁sc	-445
lo	-446
ction	-447
▁too	-448
▁�̸	-449
▁dis	-450
▁att	-451
▁O	-452
▁could	-453
▁�˷	-454
▁them	-455
▁look	-456
ng	-457
▁company	-458
vel	-459
▁which	-460
pt	-461
ents	-462
▁��������.	-463
▁off	-464
king	-465
right	-466
▁only	-467
▁�߿	-468
▁year	-469
▁�׵���	-470
▁please	-471
▁ph	-472
▁sp	-473
▁pers	-474
▁had	-475
▁well	-476
▁�ʹ�	-477
▁per	-478
▁use	-479
▁Ch	-480
▁were	-481
▁4	-482
▁day	-483
̶���	-484
here	-485
▁see	-486
▁�׸���	-487
▁ro	-488
▁lot	-489
▁also	-490
ence	-491
led	-492
ary	-493
▁week	-494
uch	-495
ict	-496
▁acc	-497
ark	-498
▁many	-499
▁How	-500
▁new	-501
ning	-502
▁happ	-503
▁here	-504
̰�	-505
▁bet	-506
▁Is	-507
▁let	-508
chool	-509
fore	-510
▁again	-511
▁em	-512
▁person	-513
▁spe	-514
▁R	-515
▁every	-516
▁bu	-517
▁much	-518
ab	-519
ree	-520
hed	-521
▁feel	-522
erv	-523
▁man	-524
In	-525
▁his	-526
ire	-527
▁today	-528
ince	-529
▁Korean	-530
▁school	-531
▁�	-532
▁�̾	-533
▁how	-534
les	-535
itt	-536
▁right	-537
ank	-538
int	-539
▁�;	-540
ving	-541
▁tra	-542
▁ȭ	-543
·�	-544
li	-545
▁back	-546
▁He	-547
reat	-548
▁Can	-549
▁inc	-550
lf	-551
other	-552
▁������,	-553
▁their	-554
▁�̹�	-555
▁order	-556
▁20	-557
▁10	-558
▁U	-559
▁bus	-560
▁���	-561
ۇٴ	-562
ily	-563
row	-564
ife	-565
get	-566
▁her	-567
▁last	-568
ff	-569
ange	-570
▁exp	-571
ible	-572
▁over	-573
ild	-574
ious	-575
▁meet	-576
▁rec	-577
ory	-578
▁under	-579
▁give	-580
▁ī	-581
ave	-582
lish	-583
▁next	-584
▁�	-585
▁wr	-586
▁Ư	-587
▁add	-588
lp	-589
▁long	-590
ect	-591
▁tw	-592
ations	-593
ose	-594
▁made	-595
hing	-596
▁�̷���	-597
▁help	-598
oy	-599
▁come	-600
▁des	-601
▁home	-602
ways	-603
̴�	-604
▁does	-605
▁���̿���.	-606
▁fam	-607
▁before	-608
rough	-609
ens	-610
▁br	-611
▁fo	-612
▁Eng	-613
alk	-614
��������	-615
▁hard	-616
▁really	-617
ial	-618
▁But	-619
og	-620
▁sm	-621
ouse	-622
ved	-623
▁bel	-624
▁col	-625
blem	-626
vie	-627
▁pay	-628
▁even	-629
▁reg	-630
▁ã	-631
▁friends	-632
▁problem	-633
▁inform	-634
▁ó	-635
���,	-636
omet	-637
▁���������	-638
▁rece	-639
▁�޾	-640
▁always	-641
▁most	-642
▁�˷��	-643
ope	-644
ions	-645
▁car	-646
orry	-647
▁food	-648
▁diffe	-649
▁tell	-650
vers	-651
▁�̿	-652
▁way	-653
ia	-654
▁got	-655
▁through	-656
▁ȣ	-657
▁ke	-658
ical	-659
▁him	-660
▁å	-661
▁English	-662
▁Ÿ	-663
ob	-664
ful	-665
ond	-666
▁�����߽��	-667
av	-668
amp	-669
iness	-670
▁since	-671
own	-672
▁́	-673
▁requ	-674
▁life	-675
lic	-676
▁cons	-677
▁into	-678
▁poss	-679
we	-680
ought	-681
ever	-682
▁ǥ	-683
ting	-684
▁rel	-685
▁��������?	-686
▁book	-687
▁6	-688
▁vis	-689
▁char	-690
nd	-691
ise	-692
cess	-693
̸�	-694
▁rep	-695
ffe	-696
▁ȯ	-697
▁Ȥ	-698
▁hope	-699
▁inv	-700
▁two	-701
▁love	-702
▁ask	-703
▁�̻	-704
▁play	-705
It	-706
▁�˴	-707
▁act	-708
▁start	-709
ason	-710
▁place	-711
▁sk	-712
mor	-713
▁best	-714
▁num	-715
ʽ��	-716
ru	-717
▁say	-718
▁fin	-719
▁�˰	-720
000	-721
atch	-722
▁products	-723
▁rest	-724
igh	-725
▁tri	-726
▁�ʽ��	-727
▁�ʿ���	-728
▁imp	-729
ors	-730
▁fl	-731
▁eat	-732
̳�	-733
oney	-734
icture	-735
▁house	-736
▁sent	-737
kes	-738
▁�׻	-739
▁dec	-740
▁she	-741
▁inter	-742
▁picture	-743
ft	-744
▁gu	-745
▁used	-746
thing	-747
let	-748
cial	-749
▁plan	-750
▁somet	-751
ell	-752
▁pa	-753
▁class	-754
ne	-755
▁�׻�	-756
ord	-757
▁mon	-758
▁show	-759
▁try	-760
▁ear	-761
鿡��	-762
Th	-763
ustom	-764
▁trans	-765
ub	-766
▁fun	-767
▁sorry	-768
▁ref	-769
▁study	-770
▁�����̿���.	-771
▁these	-772
▁won	-773
▁conf	-774
▁ġ	-775
When	-776
ract	-777
ather	-778
▁things	-779
stand	-780
▁import	-781
▁information	-782
▁comm	-783
▁possible	-784
ere	-785
▁call	-786
ments	-787
▁�ʿ��	-788
hes	-789
▁where	-790
ake	-791
urn	-792
▁count	-793
▁same	-794
▁ũ	-795
׿�.	-796
ces	-797
▁ū	-798
▁�˰�	-799
▁each	-800
▁number	-801
▁money	-802
▁�����߾���.	-803
▁custom	-804
▁�̱	-805
gr	-806
ec	-807
▁�̰�	-808
▁ü	-809
̵���	-810
▁kind	-811
▁visit	-812
▁didn	-813
▁rem	-814
self	-815
▁supp	-816
,000	-817
▁��°	-818
way	-819
read	-820
▁exper	-821
▁dep	-822
uring	-823
▁days	-824
ines	-825
▁sub	-826
As	-827
▁different	-828
ific	-829
▁read	-830
ize	-831
▁7	-832
▁care	-833
ipp	-834
ert	-835
▁ra	-836
▁may	-837
wn	-838
▁find	-839
▁So	-840
ester	-841
ject	-842
ib	-843
ems	-844
▁business	-845
▁better	-846
▁mark	-847
▁In	-848
lect	-849
▁�˾	-850
▁���̾	-851
mer	-852
▁cur	-853
pect	-854
▁serv	-855
▁That	-856
▁room	-857
▁understand	-858
��,	-859
llow	-860
▁op	-861
▁��,	-862
▁hand	-863
▁sy	-864
▁happy	-865
iss	-866
ased	-867
▁hot	-868
▁price	-869
▁Let	-870
⁄4	-871
▁buy	-872
▁month	-873
ream	-874
▁pres	-875
morrow	-876
▁world	-877
▁soon	-878
ittle	-879
▁tomorrow	-880
▁8	-881
▁bl	-882
▁went	-883
▁keep	-884
▁while	-885
̶�	-886
ull	-887
▁ent	-888
ual	-889
▁high	-890
▁talk	-891
imes	-892
▁being	-893
▁change	-894
▁reason	-895
ye	-896
▁put	-897
▁bo	-898
▁inst	-899
▁great	-900
▁around	-901
▁pur	-902
▁contact	-903
▁�̸���	-904
▁St	-905
ient	-906
▁its	-907
▁lear	-908
▁little	-909
▁job	-910
ually	-911
gether	-912
How	-913
▁ac	-914
▁ev	-915
▁list	-916
ward	-917
erest	-918
▁Ȱ	-919
▁met	-920
▁ind	-921
ating	-922
▁name	-923
ities	-924
▁without	-925
▁child	-926
▁sec	-927
irm	-928
▁follow	-929
▁important	-930
▁They	-931
▁still	-932
ph	-933
▁""	-934
▁said	-935
ates	-936
dz	-937
▁big	-938
▁years	-939
▁design	-940
▁cle	-941
ons	-942
▁���̰�	-943
▁together	-944
▁something	-945
▁family	-946
▁interest	-947
▁cal	-948
▁V	-949
▁such	-950
▁must	-951
▁÷	-952
▁�߻	-953
▁disc	-954
▁'	-955
ility	-956
▁request	-957
▁pass	-958
ced	-959
However	-960
ience	-961
▁201	-962
▁prov	-963
We	-964
▁wa	-965
▁movie	-966
ired	-967
ered	-968
""	-969
cu	-970
▁Thank	-971
▁dr	-972
▁down	-973
▁str	-974
▁using	-975
▁�׷�	-976
ner	-977
velop	-978
oup	-979
▁���⿡	-980
ves	-981
oth	-982
▁thought	-983
hip	-984
▁Se	-985
▁ù	-986
▁test	-987
▁why	-988
apan	-989
▁chang	-990
▁������?	-991
ident	-992
▁end	-993
ied	-994
ular	-995
▁"���	-996
fic	-997
▁then	-998
▁Japan	-999
▁live	-1000
▁eas	-1001
joy	-1002
▁�����̾	-1003
ween	-1004
▁ins	-1005
ality	-1006
▁night	-1007
▁market	-1008
▁phone	-1009
▁�;���.	-1010
▁û	-1011
▁det	-1012
lud	-1013
ars	-1014
▁deli	-1015
▁9	-1016
▁never	-1017
▁between	-1018
cept	-1019
aut	-1020
▁air	-1021
ian	-1022
ork	-1023
▁sche	-1024
▁process	-1025
▁�̴	-1026
▁cost	-1027
▁var	-1028
▁�÷	-1029
▁arri	-1030
▁wait	-1031
erm	-1032
ached	-1033
ics	-1034
gg	-1035
▁develop	-1036
▁ȥ	-1037
▁iss	-1038
ried	-1039
▁set	-1040
▁during	-1041
▁schedu	-1042
esterday	-1043
▁Are	-1044
▁prep	-1045
԰�	-1046
olog	-1047
▁phot	-1048
▁docu	-1049
▁������������	-1050
▁�߿���	-1051
▁mom	-1052
▁�̷�	-1053
▁enjoy	-1054
ty	-1055
ont	-1056
ffect	-1057
▁own	-1058
▁sur	-1059
▁��.	-1060
▁current	-1061
not	-1062
res	-1063
▁�޴	-1064
alth	-1065
▁email	-1066
ized	-1067
▁water	-1068
▁working	-1069
▁���̿	-1070
ivers	-1071
▁adv	-1072
▁came	-1073
▁wom	-1074
ten	-1075
ower	-1076
ody	-1077
��.	-1078
▁below	-1079
▁word	-1080
leep	-1081
▁stay	-1082
▁min	-1083
▁sit	-1084
ys	-1085
▁old	-1086
▁trip	-1087
▁�߽��	-1088
als	-1089
ature	-1090
til	-1091
▁av	-1092
▁�޽	-1093
ost	-1094
▁learn	-1095
▁yesterday	-1096
▁cor	-1097
ficult	-1098
omm	-1099
▁country	-1100
▁���̽	-1101
▁become	-1102
▁�߾���.	-1103
▁difficult	-1104
▁receiv	-1105
ok	-1106
▁once	-1107
▁thing	-1108
▁ret	-1109
▁quest	-1110
▁���̴�	-1111
▁conc	-1112
▁team	-1113
▁cannot	-1114
▁students	-1115
its	-1116
ared	-1117
▁syst	-1118
▁30	-1119
ready	-1120
▁beaut	-1121
▁mod	-1122
ath	-1123
ited	-1124
▁due	-1125
ational	-1126
▁already	-1127
▁mus	-1128
▁watch	-1129
▁left	-1130
▁ä	-1131
▁When	-1132
󸶳�	-1133
▁pol	-1134
▁art	-1135
▁12	-1136
▁�˼	-1137
oice	-1138
arm	-1139
uation	-1140
▁attached	-1141
▁�߾	-1142
▁�󸶳�	-1143
ieve	-1144
und	-1145
▁mem	-1146
duce	-1147
▁sim	-1148
▁fore	-1149
▁dream	-1150
▁giv	-1151
▁sol	-1152
ately	-1153
▁mind	-1154
▁la	-1155
There	-1156
atter	-1157
▁fr	-1158
▁account	-1159
▁sure	-1160
old	-1161
ative	-1162
ung	-1163
▁doing	-1164
▁includ	-1165
3⁄4	-1166
▁fact	-1167
ently	-1168
▁able	-1169
▁result	-1170
▁loc	-1171
▁makes	-1172
▁until	-1173
rib	-1174
▁ty	-1175
▁partic	-1176
▁ca	-1177
ided	-1178
Al	-1179
ove	-1180
▁mean	-1181
▁hotel	-1182
▁confirm	-1183
▁schedule	-1184
▁point	-1185
▁present	-1186
DZ	-1187
▁Why	-1188
▁travel	-1189
itional	-1190
▁�����̶���	-1191
cy	-1192
ceed	-1193
▁And	-1194
▁mess	-1195
▁speak	-1196
▁store	-1197
▁doesn	-1198
ages	-1199
▁mor	-1200
���?"	-1201
▁another	-1202
ness	-1203
ix	-1204
▁19	-1205
▁free	-1206
atur	-1207
▁doll	-1208
▁often	-1209
ention	-1210
▁service	-1211
ample	-1212
▁system	-1213
▁med	-1214
▁later	-1215
▁file	-1216
▁â	-1217
▁complet	-1218
߿�	-1219
▁Un	-1220
arch	-1221
▁case	-1222
▁ȿ	-1223
▁resp	-1224
▁sho	-1225
▁Could	-1226
▁health	-1227
▁anything	-1228
▁purch	-1229
▁sleep	-1230
For	-1231
▁ass	-1232
ution	-1233
▁prof	-1234
ij	-1235
ues	-1236
▁late	-1237
▁away	-1238
�����,	-1239
▁intro	-1240
▁meeting	-1241
aur	-1242
▁ord	-1243
ener	-1244
oc	-1245
▁sell	-1246
You	-1247
▁shipp	-1248
▁ob	-1249
▁open	-1250
▁real	-1251
ries	-1252
fer	-1253
▁val	-1254
After	-1255
°�	-1256
▁del	-1257
▁�̸�	-1258
▁hour	-1259
▁called	-1260
view	-1261
▁ext	-1262
▁card	-1263
▁1��	-1264
▁�׸�	-1265
ese	-1266
▁dire	-1267
▁form	-1268
▁appro	-1269
ew	-1270
oul	-1271
▁color	-1272
▁amount	-1273
▁�����˴	-1274
▁ed	-1275
▁expl	-1276
iful	-1277
▁ans	-1278
▁morning	-1279
▁game	-1280
▁couldn	-1281
▁received	-1282
ina	-1283
▁skin	-1284
▁second	-1285
▁looking	-1286
▁She	-1287
rence	-1288
▁���⸦	-1289
͸�	-1290
▁bad	-1291
▁"��,	-1292
air	-1293
ecause	-1294
te	-1295
׷���	-1296
gan	-1297
ety	-1298
▁small	-1299
gram	-1300
▁experience	-1301
aurant	-1302
▁cr	-1303
▁Sh	-1304
▁2��	-1305
iversity	-1306
uc	-1307
land	-1308
▁hum	-1309
▁found	-1310
aterial	-1311
▁payment	-1312
▁�߼	-1313
▁��¥	-1314
▁ship	-1315
▁���̸�	-1316
▁receive	-1317
▁�߿�	-1318
▁cour	-1319
▁gir	-1320
▁beautiful	-1321
ash	-1322
line	-1323
wer	-1324
ense	-1325
▁restaurant	-1326
▁making	-1327
▁�׿	-1328
▁children	-1329
ailable	-1330
▁material	-1331
▁�	-1332
▁bre	-1333
▁might	-1334
▁young	-1335
▁getting	-1336
▁ser	-1337
▁effect	-1338
▁support	-1339
▁Don	-1340
ister	-1341
▁sign	-1342
▁train	-1343
▁���̵���	-1344
▁sl	-1345
ute	-1346
▁������."	-1347
fort	-1348
▁Your	-1349
▁special	-1350
To	-1351
▁told	-1352
▁15	-1353
▁those	-1354
▁�𸣰	-1355
▁leave	-1356
ider	-1357
less	-1358
▁Ű	-1359
uture	-1360
▁drink	-1361
̵�	-1362
▁dist	-1363
▁build	-1364
▁gl	-1365
▁various	-1366
▁cert	-1367
▁Ŭ	-1368
▁someone	-1369
▁��������,	-1370
▁pain	-1371
▁pack	-1372
▁prev	-1373
avor	-1374
▁mar	-1375
▁date	-1376
▁incre	-1377
▁Did	-1378
▁���ٰ�	-1379
▁program	-1380
But	-1381
aring	-1382
▁available	-1383
▁happen	-1384
▁office	-1385
Θμ	-1386
ger	-1387
▁full	-1388
▁future	-1389
▁cult	-1390
▁�̿��	-1391
▁���	-1392
▁100	-1393
ric	-1394
▁heart	-1395
This	-1396
▁reply	-1397
▁having	-1398
chn	-1399
▁����������.	-1400
▁seems	-1401
▁address	-1402
▁prom	-1403
����.	-1404
▁"����,	-1405
▁head	-1406
▁charact	-1407
▁move	-1408
▁Would	-1409
ata	-1410
ices	-1411
▁win	-1412
▁times	-1413
▁An	-1414
iday	-1415
▁aut	-1416
▁pop	-1417
▁whe	-1418
▁delivery	-1419
▁Ʈ	-1420
▁yet	-1421
▁pos	-1422
▁stand	-1423
▁wanted	-1424
uss	-1425
pl	-1426
▁da	-1427
▁���̶���	-1428
▁Fr	-1429
ital	-1430
▁enough	-1431
▁beh	-1432
▁three	-1433
▁dra	-1434
▁�԰�	-1435
▁nice	-1436
▁weekend	-1437
▁lead	-1438
ote	-1439
▁11	-1440
ommend	-1441
▁May	-1442
▁miss	-1443
▁near	-1444
▁�̻���	-1445
ret	-1446
▁done	-1447
▁occ	-1448
osp	-1449
▁cond	-1450
oon	-1451
▁past	-1452
▁intern	-1453
▁proceed	-1454
ae	-1455
▁post	-1456
ording	-1457
▁document	-1458
osed	-1459
▁took	-1460
▁recommend	-1461
▁myself	-1462
▁situation	-1463
app	-1464
▁short	-1465
▁wish	-1466
plo	-1467
▁far	-1468
▁Seoul	-1469
▁dri	-1470
▁sing	-1471
tern	-1472
▁music	-1473
▁õ	-1474
ock	-1475
▁expect	-1476
▁reserv	-1477
2��	-1478
▁�ʿ�	-1479
▁charge	-1480
▁3��	-1481
ctions	-1482
▁impro	-1483
▁perform	-1484
▁main	-1485
▁teac	-1486
▁����?	-1487
▁parent	-1488
▁Where	-1489
▁commun	-1490
▁changed	-1491
▁sum	-1492
·��	-1493
▁clot	-1494
▁early	-1495
▁ide	-1496
▁side	-1497
▁project	-1498
▁everything	-1499
ished	-1500
▁���߿�	-1501
First	-1502
ember	-1503
���������	-1504
▁bir	-1505
meric	-1506
▁data	-1507
▁issue	-1508
▁heard	-1509
▁report	-1510
▁bit	-1511
▁grow	-1512
▁turn	-1513
itive	-1514
▁wrong	-1515
▁contract	-1516
▁particip	-1517
▁run	-1518
▁both	-1519
▁break	-1520
▁top	-1521
▁�׷��	-1522
work	-1523
▁answer	-1524
޶���	-1525
▁China	-1526
▁famous	-1527
bers	-1528
▁cent	-1529
▁pub	-1530
▁din	-1531
On	-1532
▁body	-1533
ead	-1534
▁alone	-1535
▁Americ	-1536
▁techn	-1537
▁thank	-1538
▁���߽��	-1539
▁favor	-1540
gin	-1541
angu	-1542
▁believe	-1543
▁condition	-1544
▁group	-1545
▁gener	-1546
▁message	-1547
▁teacher	-1548
▁eff	-1549
▁fil	-1550
▁express	-1551
▁ij	-1552
alking	-1553
▁contin	-1554
▁$	-1555
▁boy	-1556
▁grad	-1557
▁less	-1558
ides	-1559
▁event	-1560
▁regard	-1561
▁def	-1562
▁cold	-1563
▁exam	-1564
▁model	-1565
▁words	-1566
▁Have	-1567
▁return	-1568
▁ǰ	-1569
▁light	-1570
▁bro	-1571
▁clean	-1572
▁quick	-1573
▁�߻��	-1574
▁�߿��	-1575
ior	-1576
▁size	-1577
▁asked	-1578
ken	-1579
ffee	-1580
ures	-1581
▁usually	-1582
artment	-1583
ien	-1584
▁face	-1585
Also	-1586
▁ever	-1587
▁parents	-1588
iron	-1589
▁vide	-1590
▁others	-1591
ination	-1592
▁Our	-1593
▁est	-1594
fect	-1595
▁tast	-1596
▁���	-1597
▁taking	-1598
reci	-1599
▁direct	-1600
unch	-1601
▁customers	-1602
▁���	-1603
▁following	-1604
idd	-1605
▁means	-1606
▁ȫ	-1607
▁living	-1608
ple	-1609
oint	-1610
▁�3⁄4	-1611
▁student	-1612
▁comput	-1613
▁few	-1614
▁moment	-1615
▁�����߾	-1616
▁customer	-1617
▁men	-1618
iting	-1619
▁matter	-1620
▁item	-1621
▁consider	-1622
ier	-1623
▁�̼	-1624
▁emplo	-1625
▁langu	-1626
▁pat	-1627
▁photo	-1628
▁"��������	-1629
ised	-1630
▁opp	-1631
▁vac	-1632
▁started	-1633
utes	-1634
▁organ	-1635
��	-1636
▁exc	-1637
▁mother	-1638
▁ͅ	-1639
ames	-1640
▁cook	-1641
▁front	-1642
ts	-1643
▁listen	-1644
▁sending	-1645
▁educ	-1646
▁activ	-1647
▁whether	-1648
▁maj	-1649
▁colle	-1650
▁wonder	-1651
▁equ	-1652
�����?	-1653
▁����."	-1654
ju	-1655
اٴ	-1656
▁saw	-1657
icket	-1658
▁appreci	-1659
̱�	-1660
br	-1661
outh	-1662
▁env	-1663
▁coffee	-1664
▁dinner	-1665
ically	-1666
▁cance	-1667
ism	-1668
▁character	-1669
׽�	-1670
uck	-1671
▁course	-1672
az	-1673
̽���	-1674
▁ago	-1675
▁�����̳�	-1676
▁close	-1677
▁�̿���	-1678
▁�˼��	-1679
▁relations	-1680
iet	-1681
reen	-1682
▁lar	-1683
▁spec	-1684
▁TV	-1685
ched	-1686
ined	-1687
▁applic	-1688
▁clothes	-1689
▁coming	-1690
▁ħ	-1691
▁sample	-1692
▁�̱���	-1693
▁foreign	-1694
rol	-1695
ccess	-1696
ug	-1697
ugh	-1698
▁cre	-1699
▁oper	-1700
▁tour	-1701
ee	-1702
▁el	-1703
▁bor	-1704
▁cap	-1705
che	-1706
ology	-1707
▁among	-1708
inal	-1709
▁corre	-1710
▁letter	-1711
▁"������,	-1712
ai	-1713
ists	-1714
▁related	-1715
▁introduce	-1716
bs	-1717
�?"	-1718
▁�̻�	-1719
▁story	-1720
▁pictures	-1721
▁meth	-1722
▁ordered	-1723
ef	-1724
▁strong	-1725
▁purchase	-1726
▁ap	-1727
▁stop	-1728
▁birth	-1729
▁allow	-1730
▁woman	-1731
▁dollars	-1732
iod	-1733
▁�ٰ	-1734
▁inf	-1735
▁2����	-1736
▁bring	-1737
▁items	-1738
▁looks	-1739
▁"�����	-1740
▁ticket	-1741
▁Ph	-1742
inese	-1743
▁hours	-1744
▁refund	-1745
▁though	-1746
Yes	-1747
▁ele	-1748
ration	-1749
▁currently	-1750
▁sw	-1751
▁orig	-1752
��߽��	-1753
erg	-1754
ision	-1755
▁invoice	-1756
▁provide	-1757
ants	-1758
▁üũ	-1759
▁�˻	-1760
▁occur	-1761
▁method	-1762
▁success	-1763
con	-1764
▁trad	-1765
▁party	-1766
▁within	-1767
▁Japanese	-1768
Wh	-1769
̺�	-1770
ization	-1771
▁rese	-1772
▁Chinese	-1773
▁1�	-1774
▁write	-1775
My	-1776
▁pret	-1777
icy	-1778
▁gave	-1779
▁pri	-1780
▁cell	-1781
▁major	-1782
▁became	-1783
pr	-1784
▁These	-1785
▁studying	-1786
ients	-1787
▁transl	-1788
▁easy	-1789
elt	-1790
ify	-1791
ases	-1792
fact	-1793
▁���߾���.	-1794
ield	-1795
cially	-1796
▁const	-1797
▁attend	-1798
▁�̹�����	-1799
▁accept	-1800
▁relationship	-1801
err	-1802
▁Je	-1803
vert	-1804
vern	-1805
▁song	-1806
▁proper	-1807
ott	-1808
▁All	-1809
▁explain	-1810
▁planning	-1811
▁sales	-1812
▁period	-1813
lock	-1814
▁tem	-1815
▁pick	-1816
▁forward	-1817
▁Ƽ	-1818
▁pract	-1819
▁problems	-1820
ʹ�	-1821
▁50	-1822
▁10��	-1823
▁line	-1824
▁video	-1825
▁�׽�	-1826
▁trying	-1827
ins	-1828
▁ok	-1829
▁́�	-1830
aces	-1831
more	-1832
▁tired	-1833
▁shipping	-1834
▁questions	-1835
omp	-1836
▁ey	-1837
▁women	-1838
side	-1839
reet	-1840
▁New	-1841
▁3����	-1842
▁environ	-1843
1⁄	-1844
used	-1845
▁clear	-1846
by	-1847
▁area	-1848
▁hur	-1849
▁mail	-1850
▁level	-1851
▁�׶	-1852
▁bas	-1853
▁comes	-1854
▁dog	-1855
▁term	-1856
��̿���.	-1857
▁profess	-1858
▁question	-1859
▁bank	-1860
▁�̹���	-1861
▁detail	-1862
▁brother	-1863
▁human	-1864
▁sister	-1865
ruct	-1866
▁box	-1867
▁tot	-1868
�޷	-1869
be	-1870
▁fee	-1871
▁computer	-1872
▁apply	-1873
▁based	-1874
ift	-1875
▁Sun	-1876
▁fall	-1877
▁�̾��	-1878
▁enter	-1879
▁share	-1880
▁compet	-1881
▁reservation	-1882
time	-1883
▁���£	-1884
▁needs	-1885
▁necess	-1886
co	-1887
rist	-1888
iled	-1889
·���	-1890
▁begin	-1891
▁power	-1892
▁communic	-1893
▁appreciate	-1894
▁opin	-1895
����?	-1896
▁review	-1897
▁nothing	-1898
▁language	-1899
▁thinking	-1900
▁news	-1901
▁summer	-1902
▁vacation	-1903
▁ve	-1904
▁�޸	-1905
▁tax	-1906
▁complete	-1907
▁eyes	-1908
▁takes	-1909
ling	-1910
▁environment	-1911
▁girl	-1912
▁text	-1913
▁respons	-1914
▁interested	-1915
▁�����̿	-1916
cing	-1917
▁5��	-1918
▁correct	-1919
▁station	-1920
▁felt	-1921
▁minutes	-1922
▁���࿡	-1923
▁manag	-1924
▁culture	-1925
▁production	-1926
eng	-1927
ibility	-1928
▁leg	-1929
▁hosp	-1930
▁quant	-1931
▁sound	-1932
▁hair	-1933
▁chance	-1934
▁govern	-1935
▁discuss	-1936
▁additional	-1937
▁sal	-1938
▁vie	-1939
▁flight	-1940
▁�޽�����	-1941
▁̧	-1942
par	-1943
▁hear	-1944
pri	-1945
▁hist	-1946
Please	-1947
▁compan	-1948
▁bed	-1949
▁finish	-1950
ral	-1951
▁dz	-1952
pecially	-1953
▁popular	-1954
▁waiting	-1955
book	-1956
▁favorite	-1957
lied	-1958
▁spend	-1959
▁manage	-1960
▁city	-1961
▁���̷	-1962
▁quickly	-1963
cle	-1964
▁18	-1965
▁�޷	-1966
▁contain	-1967
▁�	-1968
▁dam	-1969
▁busy	-1970
▁building	-1971
▁�̱�	-1972
▁yourself	-1973
dd	-1974
▁ann	-1975
ification	-1976
▁Mr	-1977
▁��°��	-1978
ats	-1979
ones	-1980
iddle	-1981
▁view	-1982
iqu	-1983
▁fa	-1984
⿡��	-1985
▁works	-1986
ned	-1987
▁Be	-1988
▁jo	-1989
▁hol	-1990
▁imm	-1991
▁par	-1992
ouble	-1993
▁arrive	-1994
▁invest	-1995
load	-1996
ption	-1997
▁easily	-1998
▁decided	-1999
ium	-2000
▁flo	-2001
▁anim	-2002
▁seen	-2003
▁1����	-2004
▁US	-2005
▁fre	-2006
▁walk	-2007
▁Christ	-2008
go	-2009
io	-2010
era	-2011
▁Mon	-2012
▁���̿�	-2013
▁public	-2014
▁�����鿡��	-2015
▁���¿	-2016
▁200	-2017
▁table	-2018
▁social	-2019
So	-2020
1⁄4	-2021
ilar	-2022
ising	-2023
pping	-2024
▁paper	-2025
▁control	-2026
▁employe	-2027
▁quality	-2028
▁weather	-2029
▁university	-2030
▁aw	-2031
▁law	-2032
▁low	-2033
▁Because	-2034
��̾	-2035
▁dem	-2036
▁tou	-2037
1⁄2��	-2038
▁�����⸦	-2039
▁anymore	-2040
▁hold	-2041
ified	-2042
▁Does	-2043
▁needed	-2044
▁members	-2045
oose	-2046
▁draw	-2047
▁development	-2048
▁"�׷	-2049
▁mach	-2050
▁rele	-2051
▁countries	-2052
▁education	-2053
ills	-2054
▁bag	-2055
▁seem	-2056
▁separ	-2057
�����."	-2058
cent	-2059
▁exact	-2060
▁comfort	-2061
▁prepare	-2062
▁sat	-2063
▁okay	-2064
friend	-2065
▁Who	-2066
▁final	-2067
޿�	-2068
▁25	-2069
pped	-2070
ortun	-2071
▁mist	-2072
▁lunch	-2073
▁companies	-2074
▁cut	-2075
▁rate	-2076
▁quite	-2077
▁�����̶�	-2078
�������,	-2079
▁according	-2080
val	-2081
ably	-2082
▁father	-2083
▁vol	-2084
▁delic	-2085
aturday	-2086
ator	-2087
▁Saturday	-2088
▁typ	-2089
At	-2090
ully	-2091
▁lim	-2092
▁effort	-2093
ional	-2094
ughter	-2095
▁becom	-2096
▁state	-2097
▁improve	-2098
▁As	-2099
ored	-2100
▁���̵	-2101
▁bought	-2102
▁winter	-2103
▁Pe	-2104
▁es	-2105
ency	-2106
▁isn	-2107
▁true	-2108
▁stock	-2109
▁inside	-2110
sel	-2111
▁Every	-2112
▁everyone	-2113
▁remember	-2114
▁regarding	-2115
▁2�	-2116
▁To	-2117
▁sad	-2118
Since	-2119
▁offic	-2120
▁function	-2121
▁saying	-2122
▁cam	-2123
▁birthday	-2124
▁hospital	-2125
erc	-2126
He	-2127
oud	-2128
▁���׿	-2129
hib	-2130
▁One	-2131
▁4��	-2132
▁Then	-2133
▁haven	-2134
▁�̵���	-2135
ale	-2136
com	-2137
▁field	-2138
▁image	-2139
▁sever	-2140
▁similar	-2141
gress	-2142
▁�̸�����	-2143
▁Phil	-2144
▁warm	-2145
▁elect	-2146
▁Friday	-2147
▁�	-2148
room	-2149
▁�̿�	-2150
▁type	-2151
▁arrived	-2152
aster	-2153
▁natur	-2154
▁tried	-2155
▁necessary	-2156
ush	-2157
▁pretty	-2158
▁Ind	-2159
▁kid	-2160
ird	-2161
▁large	-2162
▁documents	-2163
▁fix	-2164
▁lost	-2165
▁agree	-2166
▁memor	-2167
▁several	-2168
▁talking	-2169
▁delicious	-2170
▁sea	-2171
▁whole	-2172
▁client	-2173
ny	-2174
uri	-2175
▁refer	-2176
▁checked	-2177
yle	-2178
▁paid	-2179
ances	-2180
▁prot	-2181
▁shop	-2182
����,	-2183
▁least	-2184
▁treat	-2185
0��	-2186
ffic	-2187
ivid	-2188
asing	-2189
▁difference	-2190
▁red	-2191
▁middle	-2192
▁smo	-2193
▁swe	-2194
asure	-2195
▁taste	-2196
▁months	-2197
▁transfer	-2198
ival	-2199
nect	-2200
though	-2201
▁black	-2202
▁government	-2203
ex	-2204
▁Ǯ	-2205
▁dev	-2206
▁wear	-2207
▁deal	-2208
▁fast	-2209
▁idea	-2210
▁quantity	-2211
▁application	-2212
��?	-2213
ateg	-2214
▁Now	-2215
▁exch	-2216
▁ready	-2217
▁eating	-2218
��߾���.	-2219
conom	-2220
ering	-2221
fully	-2222
▁snow	-2223
▁books	-2224
▁Sunday	-2225
▁�����̸�	-2226
▁watching	-2227
▁creat	-2228
▁forget	-2229
▁performance	-2230
ross	-2231
ggest	-2232
▁stat	-2233
ference	-2234
▁feeling	-2235
▁personal	-2236
alf	-2237
bal	-2238
▁grand	-2239
▁goes	-2240
▁self	-2241
▁subm	-2242
▁previous	-2243
de	-2244
▁ach	-2245
▁satis	-2246
▁happened	-2247
▁glo	-2248
▁anal	-2249
▁wind	-2250
▁Monday	-2251
▁expens	-2252
▁eng	-2253
ivered	-2254
▁press	-2255
▁indust	-2256
▁playing	-2257
▁research	-2258
band	-2259
itten	-2260
▁sold	-2261
▁suggest	-2262
ask	-2263
ding	-2264
▁pot	-2265
▁�̴�	-2266
▁total	-2267
▁upd	-2268
▁repres	-2269
▁deliver	-2270
▁instead	-2271
▁goods	-2272
▁hands	-2273
▁value	-2274
▁shipment	-2275
▁��������."	-2276
ged	-2277
▁perfect	-2278
▁daughter	-2279
▁God	-2280
▁�޴���	-2281
▁anyone	-2282
▁foc	-2283
▁exerc	-2284
▁department	-2285
ape	-2286
Even	-2287
ufact	-2288
▁���߾	-2289
Because	-2290
▁neg	-2291
▁above	-2292
�������.	-2293
▁delivered	-2294
▁interesting	-2295
▁ö	-2296
min	-2297
▁�	-2298
▁�;�.	-2299
�̿���.	-2300
▁certain	-2301
▁sometimes	-2302
▁along	-2303
▁�׿���	-2304
ulation	-2305
do	-2306
󿡼�	-2307
▁Kim	-2308
▁gra	-2309
▁gets	-2310
▁÷���	-2311
▁��¥��	-2312
▁Philipp	-2313
▁�����̰�	-2314
▁requested	-2315
▁����������,	-2316
▁Q	-2317
most	-2318
usband	-2319
na	-2320
▁sun	-2321
▁cred	-2322
▁floor	-2323
▁history	-2324
ring	-2325
▁fine	-2326
▁held	-2327
▁delay	-2328
▁space	-2329
▁consum	-2330
▁opportun	-2331
▁lots	-2332
▁���	-2333
▁exist	-2334
▁photos	-2335
▁applied	-2336
duced	-2337
▁webs	-2338
▁four	-2339
▁season	-2340
ʿ�	-2341
ump	-2342
▁Will	-2343
▁site	-2344
amples	-2345
▁�÷���	-2346
▁traditional	-2347
▁0	-2348
▁hig	-2349
▁People	-2350
▁econom	-2351
ories	-2352
ports	-2353
▁soci	-2354
▁manufact	-2355
▁÷�	-2356
▁Which	-2357
▁�߻���	-2358
▁depend	-2359
▁impress	-2360
▁recently	-2361
por	-2362
▁progress	-2363
cheon	-2364
▁cause	-2365
▁rather	-2366
▁given	-2367
▁Some	-2368
▁places	-2369
▁experien	-2370
▁positive	-2371
aka	-2372
ude	-2373
��ٰ�	-2374
▁appear	-2375
urs	-2376
reng	-2377
̺���	-2378
▁key	-2379
▁norm	-2380
▁step	-2381
▁vers	-2382
▁husband	-2383
ball	-2384
▁Pro	-2385
▁taken	-2386
▁�˷���	-2387
▁center	-2388
▁common	-2389
▁require	-2390
uk	-2391
ane	-2392
▁print	-2393
▁advert	-2394
▁outside	-2395
▁writing	-2396
▁specific	-2397
crib	-2398
▁via	-2399
icken	-2400
▁brand	-2401
▁street	-2402
▁else	-2403
▁against	-2404
▁subject	-2405
▁discount	-2406
▁camera	-2407
▁Philippines	-2408
irt	-2409
▁16	-2410
▁24	-2411
imate	-2412
idence	-2413
▁worry	-2414
▁opinion	-2415
▁checking	-2416
▁materials	-2417
̽��	-2418
▁fac	-2419
▁film	-2420
▁glad	-2421
▁goal	-2422
uff	-2423
▁�߽	-2424
▁Han	-2425
▁land	-2426
������.	-2427
▁meaning	-2428
aw	-2429
▁safe	-2430
▁�̸��	-2431
▁connect	-2432
▁South	-2433
▁boyfriend	-2434
▁lives	-2435
▁conven	-2436
▁disapp	-2437
▁record	-2438
▁original	-2439
▁mil	-2440
▁completed	-2441
gest	-2442
▁Hong	-2443
▁trust	-2444
▁white	-2445
▁reading	-2446
▁written	-2447
nam	-2448
rap	-2449
▁13	-2450
▁ru	-2451
▁cir	-2452
▁�޴�	-2453
▁shows	-2454
▁choose	-2455
▁concer	-2456
▁worked	-2457
▁airport	-2458
▁learned	-2459
uro	-2460
▁De	-2461
ique	-2462
▁ste	-2463
▁local	-2464
▁touch	-2465
▁streng	-2466
▁college	-2467
▁af	-2468
mail	-2469
▁infl	-2470
edi	-2471
▁di	-2472
▁cop	-2473
▁div	-2474
▁pie	-2475
▁war	-2476
▁park	-2477
▁parts	-2478
▁America	-2479
▁decision	-2480
Now	-2481
▁abs	-2482
▁age	-2483
▁healthy	-2484
▁position	-2485
▁�±	-2486
��	-2487
▁remain	-2488
ron	-2489
uly	-2490
raid	-2491
▁Che	-2492
▁Intern	-2493
▁�̰�����	-2494
man	-2495
▁cat	-2496
astic	-2497
▁ͅ���	-2498
▁kinds	-2499
▁���⿡��	-2500
▁changes	-2501
▁percent	-2502
bo	-2503
ume	-2504
▁ce	-2505
▁�׿�	-2506
▁machine	-2507
▁�����̾�.	-2508
ike	-2509
ives	-2510
▁club	-2511
▁afraid	-2512
▁almost	-2513
▁worried	-2514
rop	-2515
▁fish	-2516
▁attach	-2517
▁stress	-2518
▁standard	-2519
▁bab	-2520
otion	-2521
lfriend	-2522
▁advance	-2523
▁content	-2524
▁including	-2525
����������	-2526
▁bar	-2527
▁points	-2528
▁University	-2529
ene	-2530
̰�,	-2531
▁14	-2532
ividual	-2533
▁technology	-2534
▁ris	-2535
ission	-2536
▁regist	-2537
▁�̵	-2538
▁bra	-2539
▁sens	-2540
▁wasn	-2541
▁convers	-2542
ables	-2543
▁guest	-2544
▁finished	-2545
'��	-2546
mas	-2547
▁ple	-2548
�߽��	-2549
▁coup	-2550
▁gift	-2551
▁wants	-2552
▁attention	-2553
me	-2554
to	-2555
▁ź	-2556
▁�˸	-2557
phone	-2558
▁camp	-2559
▁rice	-2560
▁�ʾ�.	-2561
▁costs	-2562
▁credit	-2563
▁example	-2564
▁serious	-2565
ively	-2566
▁factory	-2567
▁website	-2568
▁Ż	-2569
▁rev	-2570
iding	-2571
▁rain	-2572
▁maint	-2573
▁required	-2574
▁management	-2575
road	-2576
▁lab	-2577
ential	-2578
▁United	-2579
▁���׿�.	-2580
▁natural	-2581
▁exchange	-2582
񽺸�	-2583
▁police	-2584
▁simple	-2585
pos	-2586
body	-2587
▁behav	-2588
▁offer	-2589
▁weeks	-2590
▁giving	-2591
÷�	-2592
vies	-2593
▁Bus	-2594
▁hon	-2595
▁���̳�	-2596
▁society	-2597
just	-2598
▁fig	-2599
▁ton	-2600
▁���̾�.	-2601
▁located	-2602
ural	-2603
▁�޿�	-2604
▁page	-2605
▁single	-2606
gu	-2607
▁́�.	-2608
▁games	-2609
▁teach	-2610
▁manager	-2611
mm	-2612
▁���	-2613
ability	-2614
▁ability	-2615
▁���̽���	-2616
▁increase	-2617
▁learning	-2618
sh	-2619
ton	-2620
icle	-2621
▁son	-2622
▁deep	-2623
▁guys	-2624
▁says	-2625
estival	-2626
▁access	-2627
▁cancel	-2628
▁mass	-2629
▁wife	-2630
▁select	-2631
▁chicken	-2632
▁�����ٰ�	-2633
▁expected	-2634
▁prepared	-2635
▁girlfriend	-2636
▁17	-2637
▁tre	-2638
▁depos	-2639
▁extra	-2640
▁movies	-2641
▁continu	-2642
▁contents	-2643
▁training	-2644
▁Christmas	-2645
▁marketing	-2646
ocol	-2647
▁���̴	-2648
illion	-2649
▁details	-2650
lex	-2651
ted	-2652
▁If	-2653
▁mag	-2654
where	-2655
▁vari	-2656
▁weight	-2657
▁�����̳	-2658
▁Incheon	-2659
▁results	-2660
mon	-2661
▁Ex	-2662
amed	-2663
▁err	-2664
▁flow	-2665
▁exhib	-2666
▁known	-2667
▁online	-2668
▁skills	-2669
▁�����̴�	-2670
▁�˼�������	-2671
▁activities	-2672
imum	-2673
lier	-2674
ming	-2675
urther	-2676
▁individual	-2677
mber	-2678
orth	-2679
pose	-2680
▁base	-2681
▁focus	-2682
▁directly	-2683
▁interview	-2684
▁presentation	-2685
▁̧�	-2686
iter	-2687
▁bott	-2688
mb	-2689
▁cup	-2690
▁gives	-2691
▁���̽�	-2692
ax	-2693
▁Al	-2694
▁cra	-2695
▁�̺�	-2696
anger	-2697
▁solve	-2698
And	-2699
▁3�	-2700
▁Sp	-2701
itted	-2702
▁ball	-2703
▁clos	-2704
▁meal	-2705
▁ident	-2706
ctor	-2707
▁equip	-2708
▁���°�	-2709
▁���񽺸�	-2710
▁�̱�����	-2711
aff	-2712
▁ing	-2713
▁protect	-2714
ah	-2715
▁Re	-2716
▁lu	-2717
ilities	-2718
▁�׷�����	-2719
▁represent	-2720
▁coo	-2721
▁�;�	-2722
▁hurt	-2723
▁sense	-2724
▁respect	-2725
With	-2726
▁slow	-2727
▁soft	-2728
▁���̳	-2729
�߾���.	-2730
▁subway	-2731
ets	-2732
▁smart	-2733
��̶���	-2734
▁version	-2735
▁40	-2736
▁�޽���	-2737
ountain	-2738
▁No	-2739
atic	-2740
▁fire	-2741
▁ones	-2742
▁longer	-2743
▁holiday	-2744
.5	-2745
▁Jo	-2746
▁ten	-2747
·����	-2748
�̶���	-2749
▁except	-2750
▁equipment	-2751
new	-2752
resh	-2753
▁wed	-2754
▁8��	-2755
▁dress	-2756
▁evening	-2757
▁married	-2758
Therefore	-2759
ili	-2760
ither	-2761
▁door	-2762
selves	-2763
▁adjust	-2764
cer	-2765
ury	-2766
▁́يٴ	-2767
▁dest	-2768
▁���	-2769
▁immedi	-2770
▁passed	-2771
▁�����߾���."	-2772
ext	-2773
ured	-2774
▁mis	-2775
▁Many	-2776
▁toward	-2777
They	-2778
ying	-2779
▁enc	-2780
▁pen	-2781
▁sem	-2782
ledge	-2783
▁phys	-2784
▁earth	-2785
tle	-2786
upp	-2787
▁Am	-2788
▁baby	-2789
▁half	-2790
▁ways	-2791
atched	-2792
rently	-2793
20	-2794
over	-2795
▁�˷�	-2796
▁Aust	-2797
▁smile	-2798
▁ingred	-2799
▁temper	-2800
������,	-2801
▁package	-2802
▁industry	-2803
Un	-2804
rew	-2805
come	-2806
▁ang	-2807
▁influ	-2808
▁prefer	-2809
▁collect	-2810
▁shopping	-2811
▁international	-2812
▁behind	-2813
▁cooper	-2814
▁screen	-2815
▁sports	-2816
▁trouble	-2817
▁comfortable	-2818
urg	-2819
ruction	-2820
▁prevent	-2821
els	-2822
̼���	-2823
▁role	-2824
▁sick	-2825
▁���޵	-2826
▁issues	-2827
▁especially	-2828
▁�����������	-2829
▁ķ	-2830
▁Ȩ	-2831
▁6��	-2832
▁sci	-2833
▁firm	-2834
▁daily	-2835
▁sweet	-2836
▁engine	-2837
▁Ʋ	-2838
ams	-2839
oid	-2840
▁21	-2841
▁arm	-2842
Thank	-2843
▁inqu	-2844
verage	-2845
▁States	-2846
▁abroad	-2847
▁samples	-2848
▁developed	-2849
%��	-2850
raph	-2851
ught	-2852
▁His	-2853
▁Park	-2854
idered	-2855
▁action	-2856
▁memory	-2857
▁exercise	-2858
▁strength	-2859
ze	-2860
ches	-2861
▁match	-2862
▁���̵�	-2863
▁mention	-2864
̽�	-2865
ergy	-2866
lebr	-2867
▁7��	-2868
▁Air	-2869
istic	-2870
▁Jeju	-2871
▁seat	-2872
▁staff	-2873
▁types	-2874
▁struct	-2875
▁wedding	-2876
▁provided	-2877
▁employees	-2878
bit	-2879
adem	-2880
▁net	-2881
▁weak	-2882
̿�	-2883
oss	-2884
▁Face	-2885
▁grade	-2886
▁gradu	-2887
▁�����	-2888
▁expensive	-2889
cious	-2890
▁dead	-2891
▁�׸��	-2892
�޶���	-2893
▁style	-2894
▁install	-2895
▁����������?	-2896
No	-2897
▁�	-2898
▁cake	-2899
▁opportunity	-2900
uge	-2901
▁On	-2902
▁�¶	-2903
aking	-2904
▁2016	-2905
▁risk	-2906
▁reasons	-2907
▁younger	-2908
▁practice	-2909
▁considered	-2910
▁bal	-2911
▁dom	-2912
▁hang	-2913
▁prob	-2914
ashion	-2915
▁satisf	-2916
▁general	-2917
▁visited	-2918
▁addition	-2919
bor	-2920
▁Pl	-2921
▁join	-2922
▁luck	-2923
▁repl	-2924
�޷���	-2925
▁object	-2926
▁tonight	-2927
By	-2928
ada	-2929
hor	-2930
▁lack	-2931
▁autom	-2932
▁board	-2933
▁aftern	-2934
▁celebr	-2935
▁colors	-2936
▁looked	-2937
Although	-2938
�⿡	-2939
ots	-2940
▁sn	-2941
▁priv	-2942
▁4����	-2943
▁moder	-2944
▁stick	-2945
▁played	-2946
▁achieve	-2947
▁Facebook	-2948
▁conversation	-2949
▁�	-2950
▁five	-2951
▁kids	-2952
▁medic	-2953
▁surpr	-2954
▁���3⁄4	-2955
nt	-2956
yo	-2957
▁fit	-2958
▁suit	-2959
▁shown	-2960
▁higher	-2961
▁shipped	-2962
▁�̷�����	-2963
▁afternoon	-2964
ogn	-2965
▁et	-2966
onse	-2967
▁ess	-2968
▁mob	-2969
▁cool	-2970
▁���̶�	-2971
▁becomes	-2972
▁confirmed	-2973
mp	-2974
▁hob	-2975
itude	-2976
itting	-2977
▁track	-2978
▁affect	-2979
▁earlier	-2980
▁regular	-2981
▁solution	-2982
▁participate	-2983
�̾	-2984
une	-2985
oura	-2986
▁heav	-2987
▁poor	-2988
▁death	-2989
▁shoes	-2990
▁energy	-2991
▁mistake	-2992
▁behavior	-2993
▁transport	-2994
▁Jan	-2995
Sorry	-2996
▁stra	-2997
▁terms	-2998
▁academ	-2999
▁distrib	-3000
▁traveling	-3001
▁�������̰�	-3002
30	-3003
5��	-3004
aged	-3005
ners	-3006
▁"�˼	-3007
cture	-3008
istics	-3009
▁added	-3010
▁polit	-3011
▁nature	-3012
▁beginning	-3013
▁500	-3014
iment	-3015
▁born	-3016
▁fail	-3017
▁���񿡰	-3018
▁guess	-3019
▁chocol	-3020
▁happiness	-3021
▁�׶�	-3022
▁chall	-3023
▁�߾���	-3024
oke	-3025
▁60	-3026
▁���	-3027
▁assign	-3028
▁accident	-3029
▁temperature	-3030
Ex	-3031
▁z	-3032
▁�޶	-3033
back	-3034
▁port	-3035
▁score	-3036
▁measure	-3037
▁American	-3038
▁maintain	-3039
▁supposed	-3040
ns	-3041
ery	-3042
rit	-3043
From	-3044
▁certific	-3045
▁communication	-3046
iol	-3047
ccer	-3048
▁Kaka	-3049
▁dish	-3050
▁eval	-3051
▁feed	-3052
▁global	-3053
▁particular	-3054
akes	-3055
fety	-3056
▁ate	-3057
▁carry	-3058
urrently	-3059
▁Austral	-3060
▁careful	-3061
▁included	-3062
▁exhibition	-3063
ҸӴ	-3064
▁Ar	-3065
▁Fe	-3066
▁ri	-3067
▁lay	-3068
▁lic	-3069
▁save	-3070
▁compl	-3071
▁���񿡰�	-3072
Of	-3073
¡��	-3074
aving	-3075
▁Euro	-3076
▁Busan	-3077
▁fresh	-3078
▁asking	-3079
▁unique	-3080
▁�����̴	-3081
10	-3082
▁¥	-3083
bok	-3084
°�?	-3085
࿡��	-3086
Then	-3087
▁forg	-3088
▁advant	-3089
▁recogn	-3090
▁deposit	-3091
▁fashion	-3092
▁�̲	-3093
erve	-3094
▁arr	-3095
▁tea	-3096
▁Germ	-3097
▁super	-3098
▁���󿡼�	-3099
▁regret	-3100
▁strateg	-3101
je	-3102
׷�	-3103
vant	-3104
▁tend	-3105
▁cream	-3106
▁helps	-3107
▁shall	-3108
▁�̽���	-3109
▁danger	-3110
▁animals	-3111
ilt	-3112
""��	-3113
▁hit	-3114
▁ill	-3115
▁Tell	-3116
▁meat	-3117
▁foods	-3118
▁reach	-3119
▁immediately	-3120
▁Cl	-3121
▁ID	-3122
dden	-3123
ground	-3124
▁5����	-3125
▁apolog	-3126
▁sudden	-3127
▁���1⁄2��	-3128
▁knowledge	-3129
aim	-3130
ief	-3131
That	-3132
▁ben	-3133
▁ice	-3134
▁non	-3135
▁shape	-3136
duction	-3137
▁demand	-3138
▁feature	-3139
▁īī	-3140
ises	-3141
▁circ	-3142
▁copy	-3143
▁link	-3144
action	-3145
▁defin	-3146
▁Internet	-3147
▁personality	-3148
ailed	-3149
izing	-3150
▁lose	-3151
▁attract	-3152
▁concent	-3153
▁finally	-3154
▁aff	-3155
yeong	-3156
▁hate	-3157
▁fight	-3158
▁conduct	-3159
▁X	-3160
▁opt	-3161
▁York	-3162
▁mine	-3163
lement	-3164
▁media	-3165
▁veget	-3166
▁services	-3167
▁���̿���."	-3168
Be	-3169
zy	-3170
met	-3171
nes	-3172
ney	-3173
uary	-3174
▁sil	-3175
light	-3176
▁plans	-3177
▁Thanks	-3178
▁upload	-3179
▁biggest	-3180
sc	-3181
ters	-3182
׵���	-3183
▁9��	-3184
▁Min	-3185
▁note	-3186
▁stuff	-3187
▁�޶���	-3188
▁author	-3189
▁damage	-3190
▁determ	-3191
▁search	-3192
▁delayed	-3193
▁�̳	-3194
▁�𸨴	-3195
head	-3196
▁basic	-3197
▁lower	-3198
▁older	-3199
▁choice	-3200
▁create	-3201
▁normal	-3202
▁appoint	-3203
▁running	-3204
▁released	-3205
ov	-3206
▁Į	-3207
̸�,	-3208
▁�׾	-3209
▁dut	-3210
▁harm	-3211
▁bright	-3212
Currently	-3213
▁festival	-3214
▁confirmation	-3215
lus	-3216
▁�ʼ	-3217
pril	-3218
▁10�	-3219
▁Aug	-3220
▁sky	-3221
▁�ʾ�	-3222
▁Most	-3223
▁comb	-3224
▁blood	-3225
▁�ʹ���	-3226
▁�߼���	-3227
▁purpose	-3228
▁listening	-3229
▁oil	-3230
ended	-3231
▁accur	-3232
▁window	-3233
▁January	-3234
▁further	-3235
▁national	-3236
50	-3237
▁menu	-3238
▁town	-3239
ursday	-3240
▁April	-3241
▁catch	-3242
▁finan	-3243
▁soccer	-3244
▁compared	-3245
▁1,	-3246
▁swim	-3247
▁mobile	-3248
▁safety	-3249
▁include	-3250
▁�׸�����	-3251
▁Thursday	-3252
▁chocolate	-3253
▁mentioned	-3254
▁�������̿���.	-3255
ps	-3256
▁�޼	-3257
̰���	-3258
▁etc	-3259
▁mot	-3260
ously	-3261
▁prin	-3262
▁road	-3263
▁imposs	-3264
▁Koreans	-3265
▁continue	-3266
PS	-3267
Acc	-3268
▁log	-3269
Today	-3270
▁foot	-3271
▁task	-3272
▁viol	-3273
▁cover	-3274
▁error	-3275
▁dishes	-3276
▁island	-3277
▁member	-3278
▁element	-3279
▁mountain	-3280
▁probably	-3281
▁responsibility	-3282
face	-3283
like	-3284
��̳�	-3285
▁huge	-3286
▁�1⁄4	-3287
▁March	-3288
▁���·�	-3289
▁decide	-3290
▁status	-3291
▁watched	-3292
▁actually	-3293
ha	-3294
▁emb	-3295
▁dark	-3296
▁users	-3297
▁���׿�	-3298
▁�����鿡	-3299
▁memories	-3300
▁provides	-3301
rend	-3302
▁gain	-3303
▁imag	-3304
▁kept	-3305
▁Today	-3306
▁block	-3307
��̽���	-3308
▁exactly	-3309
wan	-3310
▁Tr	-3311
uses	-3312
߿���	-3313
▁12��	-3314
▁Take	-3315
▁���޴	-3316
▁estab	-3317
▁traffic	-3318
▁response	-3319
▁conditions	-3320
uth	-3321
aves	-3322
fast	-3323
rely	-3324
ysis	-3325
▁Pay	-3326
house	-3327
▁coun	-3328
▁North	-3329
▁owner	-3330
▁August	-3331
▁ground	-3332
According	-3333
▁professional	-3334
▁Z	-3335
ges	-3336
won	-3337
▁moved	-3338
▁Europe	-3339
▁growth	-3340
▁supply	-3341
▁properly	-3342
▁semester	-3343
▁impossible	-3344
hy	-3345
ym	-3346
׸�	-3347
▁blue	-3348
▁boss	-3349
▁frequ	-3350
▁green	-3351
▁neigh	-3352
▁third	-3353
▁active	-3354
▁caused	-3355
▁figure	-3356
▁reference	-3357
HL	-3358
▁Ǫ	-3359
set	-3360
▁Or	-3361
▁jud	-3362
▁mix	-3363
▁��¦	-3364
▁glass	-3365
▁broken	-3366
▁modern	-3367
▁customs	-3368
▁medical	-3369
ram	-3370
cast	-3371
ster	-3372
year	-3373
▁Wed	-3374
▁bur	-3375
▁eye	-3376
ieved	-3377
▁Here	-3378
▁���ʽ	-3379
▁selling	-3380
▁ingredients	-3381
hn	-3382
of	-3383
▁4�	-3384
▁Go	-3385
▁sour	-3386
▁tool	-3387
▁Island	-3388
▁orders	-3389
▁�����͸�	-3390
▁official	-3391
▁certificate	-3392
izz	-3393
ued	-3394
▁�𸣴	-3395
▁fab	-3396
▁gen	-3397
▁ver	-3398
urity	-3399
priate	-3400
̿���."	-3401
▁spent	-3402
▁���¿�	-3403
▁overse	-3404
▁apologize	-3405
3��	-3406
cel	-3407
▁egg	-3408
▁cash	-3409
▁claim	-3410
▁fixed	-3411
▁invol	-3412
▁���̱�	-3413
▁Should	-3414
▁spread	-3415
▁preparing	-3416
ato	-3417
ole	-3418
��˴	-3419
▁adm	-3420
▁fan	-3421
▁max	-3422
▁2017	-3423
▁code	-3424
▁dram	-3425
▁fill	-3426
▁Canada	-3427
▁moving	-3428
▁update	-3429
▁ant	-3430
▁ٰ́�	-3431
▁libr	-3432
▁cases	-3433
▁depart	-3434
▁patient	-3435
▁promise	-3436
▁wearing	-3437
▁physical	-3438
▁thoughts	-3439
What	-3440
rench	-3441
▁cute	-3442
▁fell	-3443
nesday	-3444
uesday	-3445
▁benef	-3446
▁policy	-3447
▁describ	-3448
▁Ȧ	-3449
ked	-3450
▁27	-3451
▁PO	-3452
▁Te	-3453
▁õõ	-3454
hood	-3455
iver	-3456
urch	-3457
▁Mar	-3458
▁Not	-3459
▁fund	-3460
▁10����	-3461
▁follows	-3462
▁�ʾ�����	-3463
▁location	-3464
▁starting	-3465
▁Wednesday	-3466
▁i	-3467
▁ì	-3468
ept	-3469
▁Con	-3470
▁blo	-3471
▁bill	-3472
ograph	-3473
▁beach	-3474
▁volun	-3475
▁concept	-3476
▁detailed	-3477
▁breakfast	-3478
▁�����̿���."	-3479
St	-3480
1��	-3481
rim	-3482
▁�⵵	-3483
▁Man	-3484
▁tit	-3485
▁submit	-3486
▁Tuesday	-3487
▁license	-3488
▁million	-3489
▁whenever	-3490
acy	-3491
uce	-3492
▁hor	-3493
▁obs	-3494
▁crit	-3495
▁gone	-3496
▁effic	-3497
▁loved	-3498
▁button	-3499
▁either	-3500
▁allowed	-3501
▁medicine	-3502
▁advertise	-3503
▁convenient	-3504
▁competition	-3505
▁understanding	-3506
imb	-3507
▁�¿	-3508
ware	-3509
▁tar	-3510
▁Ital	-3511
▁ride	-3512
▁��."	-3513
ending	-3514
▁areas	-3515
▁likes	-3516
▁stage	-3517
▁proced	-3518
▁resour	-3519
▁seeing	-3520
▁talked	-3521
▁concert	-3522
▁completely	-3523
ƽþ	-3524
׿�	-3525
omen	-3526
▁squ	-3527
▁mult	-3528
▁lived	-3529
▁trend	-3530
▁wrote	-3531
▁doctor	-3532
▁entire	-3533
▁handle	-3534
▁reflect	-3535
▁staying	-3536
▁���̿���	-3537
▁feelings	-3538
▁themselves	-3539
BC	-3540
aced	-3541
▁fru	-3542
ggage	-3543
itary	-3544
▁Stud	-3545
▁�̻��	-3546
▁turned	-3547
MS	-3548
▁aud	-3549
▁Just	-3550
▁earn	-3551
▁angry	-3552
▁bread	-3553
▁drive	-3554
▁hobby	-3555
▁plane	-3556
���߽��	-3557
▁device	-3558
▁drawing	-3559
▁shouldn	-3560
▁analysis	-3561
▁drinking	-3562
▁5�	-3563
itor	-3564
▁compon	-3565
▁���̺���	-3566
▁operation	-3567
pa	-3568
Last	-3569
▁DHL	-3570
▁bath	-3571
▁knew	-3572
▁suff	-3573
▁taxi	-3574
▁fault	-3575
▁likely	-3576
▁classes	-3577
▁library	-3578
▁luggage	-3579
▁occurred	-3580
▁increased	-3581
cm	-3582
nel	-3583
rate	-3584
▁Isn	-3585
▁flu	-3586
ences	-3587
▁adult	-3588
▁moist	-3589
▁origin	-3590
▁reduce	-3591
▁activity	-3592
▁overseas	-3593
▁pressure	-3594
▁financial	-3595
rd	-3596
oll	-3597
reme	-3598
▁App	-3599
▁Wor	-3600
▁cry	-3601
���̾	-3602
atory	-3603
▁produce	-3604
▁studied	-3605
specially	-3606
▁effective	-3607
▁construction	-3608
̼�	-3609
gar	-3610
▁��	-3611
▁July	-3612
▁vill	-3613
▁cheese	-3614
▁cooking	-3615
▁however	-3616
▁Australia	-3617
▁disappoint	-3618
▁ġŲ	-3619
▁inn	-3620
ental	-3621
▁fair	-3622
▁quiet	-3623
▁France	-3624
▁helpful	-3625
▁successful	-3626
▁experiences	-3627
▁translation	-3628
arr	-3629
▁�԰	-3630
▁÷��	-3631
▁broad	-3632
▁heavy	-3633
▁���ʿ�	-3634
▁explan	-3635
▁prices	-3636
▁average	-3637
NS	-3638
׷��	-3639
▁Tw	-3640
▁hy	-3641
▁Lee	-3642
▁urg	-3643
▁beer	-3644
▁decre	-3645
▁fully	-3646
▁grandm	-3647
▁walking	-3648
▁structure	-3649
umb	-3650
ison	-3651
izes	-3652
׸���	-3653
▁2014	-3654
▁liked	-3655
▁brought	-3656
▁responsible	-3657
▁Ȳ	-3658
unk	-3659
tain	-3660
▁diet	-3661
▁built	-3662
▁displ	-3663
▁produ	-3664
▁enjoyed	-3665
▁estimate	-3666
▁president	-3667
cri	-3668
ley	-3669
▁PC	-3670
ober	-3671
▁cos	-3672
▁�𸣴�	-3673
▁Kong	-3674
▁chat	-3675
▁wall	-3676
▁1,000	-3677
▁avoid	-3678
▁"�׷���	-3679
▁secret	-3680
▁���̽��	-3681
▁forever	-3682
▁passion	-3683
▁variety	-3684
▁organization	-3685
▁Ke	-3686
▁�°�	-3687
econd	-3688
▁gold	-3689
▁init	-3690
▁unit	-3691
▁6����	-3692
▁topic	-3693
▁"�̰���	-3694
▁advice	-3695
���̿���.	-3696
▁�������̾	-3697
▁́ٴ	-3698
�̳�	-3699
riage	-3700
rences	-3701
▁named	-3702
▁voice	-3703
▁security	-3704
▁speaking	-3705
▁visiting	-3706
▁appropriate	-3707
°,	-3708
ging	-3709
▁Feb	-3710
▁fem	-3711
±���.	-3712
▁loss	-3713
▁events	-3714
▁thanks	-3715
ometimes	-3716
▁created	-3717
▁driving	-3718
▁reality	-3719
▁strange	-3720
▁produced	-3721
▁professor	-3722
att	-3723
cul	-3724
▁dry	-3725
▁guy	-3726
iliar	-3727
▁desk	-3728
lished	-3729
▁limit	-3730
▁raise	-3731
▁truth	-3732
▁worth	-3733
▁rights	-3734
▁carefully	-3735
▁appointment	-3736
̷�	-3737
cell	-3738
oung	-3739
▁die	-3740
��̰�	-3741
▁fried	-3742
▁recent	-3743
▁changing	-3744
She	-3745
▁23	-3746
omed	-3747
estic	-3748
itely	-3749
▁Sept	-3750
▁emot	-3751
▁rent	-3752
▁speed	-3753
▁French	-3754
▁interp	-3755
▁limited	-3756
▁employee	-3757
put	-3758
Once	-3759
clock	-3760
ommod	-3761
▁Comp	-3762
▁cand	-3763
▁�߼��	-3764
▁twice	-3765
▁���?	-3766
▁���̾�	-3767
▁"�׷���,	-3768
▁partner	-3769
▁wonderful	-3770
▁transportation	-3771
▁�׺	-3772
alent	-3773
ruary	-3774
▁11��	-3775
▁coll	-3776
▁jobs	-3777
▁driver	-3778
▁itself	-3779
▁approach	-3780
▁September	-3781
rup	-3782
▁1.	-3783
ators	-3784
ivity	-3785
▁dise	-3786
▁perm	-3787
urious	-3788
▁cross	-3789
▁invent	-3790
▁effects	-3791
▁precious	-3792
TA	-3793
su	-3794
▁�3	-3795
▁gre	-3796
▁ter	-3797
▁load	-3798
▁roll	-3799
▁till	-3800
ension	-3801
▁peace	-3802
▁sheet	-3803
▁beauty	-3804
▁agreement	-3805
▁registered	-3806
▁manufacture	-3807
▁�	-3808
▁�	-3809
itch	-3810
▁Oct	-3811
▁nut	-3812
iling	-3813
▁pray	-3814
▁repe	-3815
▁star	-3816
urance	-3817
▁dance	-3818
▁guide	-3819
▁spicy	-3820
▁���̺�	-3821
▁spring	-3822
▁wouldn	-3823
▁balance	-3824
▁lecture	-3825
▁private	-3826
▁February	-3827
▁realized	-3828
chi	-3829
▁$1	-3830
""."	-3831
anch	-3832
▁Tok	-3833
anced	-3834
antly	-3835
idays	-3836
▁user	-3837
iction	-3838
▁honest	-3839
▁slowly	-3840
▁accommod	-3841
▁complain	-3842
▁internet	-3843
▁direction	-3844
▁elementary	-3845
▁�������̶���	-3846
aps	-3847
��	-3848
mosp	-3849
▁deg	-3850
▁30��	-3851
▁cafe	-3852
▁duty	-3853
▁�̵��	-3854
▁indic	-3855
▁prior	-3856
▁�׵鿡��	-3857
▁�޷���	-3858
▁opened	-3859
▁becoming	-3860
▁military	-3861
▁sleeping	-3862
▁satisfied	-3863
▁treatment	-3864
▁representative	-3865
airs	-3866
rown	-3867
▁sto	-3868
▁host	-3869
▁tree	-3870
▁title	-3871
▁cosmet	-3872
▁instru	-3873
▁nearby	-3874
ulations	-3875
▁happens	-3876
▁�̻�����	-3877
▁sentence	-3878
▁separately	-3879
oms	-3880
▁Car	-3881
▁20��	-3882
▁tele	-3883
minist	-3884
▁World	-3885
▁atmosp	-3886
▁couple	-3887
▁volunte	-3888
�⸦	-3889
▁22	-3890
▁Pr	-3891
roll	-3892
▁199	-3893
▁�޸�	-3894
▁��	-3895
ially	-3896
▁Make	-3897
▁milk	-3898
▁piece	-3899
▁sauce	-3900
▁�¶���	-3901
▁defect	-3902
▁respond	-3903
▁contains	-3904
▁electric	-3905
▁homework	-3906
▁marriage	-3907
One	-3908
▁Bl	-3909
��̶�	-3910
▁acqu	-3911
▁amaz	-3912
▁nood	-3913
▁wide	-3914
���̳�	-3915
▁scene	-3916
▁smell	-3917
▁target	-3918
▁science	-3919
▁approval	-3920
cip	-3921
▁�÷�	-3922
▁drop	-3923
▁sale	-3924
▁soup	-3925
ourage	-3926
▁paint	-3927
pection	-3928
▁fabric	-3929
atically	-3930
▁excited	-3931
▁designed	-3932
▁feedback	-3933
▁movement	-3934
izza	-3935
▁sex	-3936
▁unf	-3937
▁�޾�	-3938
inary	-3939
useum	-3940
▁rich	-3941
▁buyer	-3942
▁conne	-3943
▁ideas	-3944
▁agency	-3945
▁announ	-3946
▁double	-3947
▁receip	-3948
▁starts	-3949
▁relevant	-3950
eal	-3951
cket	-3952
▁rad	-3953
cember	-3954
▁analy	-3955
▁feels	-3956
▁range	-3957
▁�̳���	-3958
olution	-3959
▁accomp	-3960
▁bigger	-3961
▁notice	-3962
▁���¿���	-3963
▁returned	-3964
▁advantage	-3965
▁confident	-3966
▁increasing	-3967
ik	-3968
ara	-3969
ips	-3970
▁pm	-3971
idge	-3972
lete	-3973
▁fat	-3974
▁mid	-3975
epend	-3976
ining	-3977
▁Tokyo	-3978
▁proud	-3979
▁across	-3980
▁excell	-3981
▁patter	-3982
▁network	-3983
▁release	-3984
▁December	-3985
▁dangerous	-3986
▁considering	-3987
▁Ž	-3988
▁"1	-3989
▁Par	-3990
▁�߼�	-3991
eness	-3992
under	-3993
▁arch	-3994
atever	-3995
▁Kakao	-3996
▁rules	-3997
▁subst	-3998
▁actual	-3999
▁church	-4000
▁leader	-4001
▁replace	-4002
▁canceled	-4003
▁painting	-4004
▁frequently	-4005
▁characteristics	-4006
ians	-4007
▁veh	-4008
round	-4009
▁2015	-4010
omeday	-4011
▁relax	-4012
comfort	-4013
▁player	-4014
▁showed	-4015
▁October	-4016
▁tickets	-4017
▁�÷�����	-4018
▁domestic	-4019
▁signific	-4020
▁suddenly	-4021
▁�����̾����	-4022
▁26	-4023
��߾	-4024
▁30�	-4025
▁Col	-4026
▁Dae	-4027
▁six	-4028
��."	-4029
illed	-4030
▁heat	-4031
▁poll	-4032
▁�÷��	-4033
▁chose	-4034
▁÷����	-4035
▁borrow	-4036
▁surface	-4037
▁�޴�����	-4038
▁atmosphere	-4039
apt	-4040
ony	-4041
▁En	-4042
eter	-4043
ʿ���	-4044
▁300	-4045
▁Put	-4046
▁bud	-4047
▁lat	-4048
While	-4049
▁lone	-4050
▁upon	-4051
Second	-4052
▁cargo	-4053
▁closed	-4054
▁numbers	-4055
▁holidays	-4056
cl	-4057
key	-4058
▁80	-4059
inder	-4060
▁Maybe	-4061
▁incon	-4062
▁legal	-4063
▁�޸���	-4064
▁nation	-4065
▁leaving	-4066
▁uncomfort	-4067
▁cooperation	-4068
eth	-4069
rel	-4070
▁At	-4071
▁Hy	-4072
athe	-4073
▁SNS	-4074
▁Inst	-4075
▁entr	-4076
▁files	-4077
▁�˸���	-4078
▁bottom	-4079
▁region	-4080
▁served	-4081
▁missing	-4082
▁economic	-4083
▁includes	-4084
▁negative	-4085
▁straight	-4086
▁characters	-4087
▁explanation	-4088
▁grandmother	-4089
bt	-4090
õǾ	-4091
▁ž	-4092
Don	-4093
ply	-4094
▁ut	-4095
��	-4096
cher	-4097
▁ign	-4098
▁lie	-4099
▁Russ	-4100
▁���⵵	-4101
▁Those	-4102
▁helped	-4103
▁instit	-4104
▁profit	-4105
▁remove	-4106
▁leaders	-4107
▁towards	-4108
▁inconven	-4109
▁register	-4110
▁selected	-4111
▁depending	-4112
▁surprised	-4113
▁vegetables	-4114
▁communicate	-4115
ague	-4116
▁Dis	-4117
▁dro	-4118
▁fly	-4119
▁Jack	-4120
▁vict	-4121
▁́���	-4122
▁pizza	-4123
▁impact	-4124
▁smooth	-4125
▁academy	-4126
▁extreme	-4127
▁influence	-4128
▁inspection	-4129
Ch	-4130
ech	-4131
▁cy	-4132
cked	-4133
enty	-4134
iced	-4135
▁Hot	-4136
eared	-4137
▁City	-4138
▁aren	-4139
▁pian	-4140
▁"�˼��	-4141
▁emerg	-4142
▁trade	-4143
▁forgot	-4144
▁���£��	-4145
▁contrib	-4146
▁efforts	-4147
▁planned	-4148
▁separate	-4149
▁functions	-4150
▁investment	-4151
▁uncomfortable	-4152
amm	-4153
iff	-4154
sing	-4155
▁gas	-4156
▁tur	-4157
arant	-4158
▁Cent	-4159
▁June	-4160
▁feet	-4161
▁rooms	-4162
▁sight	-4163
▁"�׵���	-4164
▁caught	-4165
▁repair	-4166
▁display	-4167
▁neighbor	-4168
▁swimming	-4169
▁weekends	-4170
Especially	-4171
▁�����̾�����.	-4172
▁Tai	-4173
▁sus	-4174
▁�׵�	-4175
ening	-4176
▁fing	-4177
▁stri	-4178
▁mouth	-4179
▁bother	-4180
▁clients	-4181
▁consult	-4182
▁damaged	-4183
▁apartment	-4184
oti	-4185
▁Gu	-4186
▁kn	-4187
word	-4188
÷���	-4189
▁pun	-4190
▁ran	-4191
allet	-4192
▁spir	-4193
▁�߾�.	-4194
▁broke	-4195
▁cheap	-4196
▁maximum	-4197
▁existing	-4198
▁patients	-4199
'.	-4200
ino	-4201
▁�⻵	-4202
dong	-4203
׿�."	-4204
▁bes	-4205
alled	-4206
oting	-4207
▁Cont	-4208
▁John	-4209
▁nerv	-4210
▁pred	-4211
▁uses	-4212
▁whom	-4213
▁round	-4214
▁belong	-4215
▁harder	-4216
▁3������	-4217
▁clearly	-4218
▁entered	-4219
▁telling	-4220
▁attitude	-4221
▁distance	-4222
▁receiving	-4223
▁experiment	-4224
▁foreigners	-4225
▁?	-4226
8��	-4227
leg	-4228
▁MO	-4229
▁"�̾	-4230
▁bri	-4231
▁caf	-4232
▁cars	-4233
atives	-4234
utions	-4235
itation	-4236
���̶���	-4237
▁article	-4238
▁players	-4239
▁showing	-4240
▁studies	-4241
▁political	-4242
▁���̾�����.	-4243
ǾƳ	-4244
▁ĥ	-4245
▁29	-4246
▁AP	-4247
▁Le	-4248
▁Sm	-4249
▁dig	-4250
▁gar	-4251
▁mer	-4252
ength	-4253
▁remo	-4254
fortun	-4255
▁girls	-4256
▁snack	-4257
▁negoti	-4258
▁actions	-4259
▁putting	-4260
▁receipt	-4261
▁administ	-4262
▁entrance	-4263
▁messages	-4264
▁connected	-4265
▁background	-4266
kg	-4267
޴�	-4268
tic	-4269
▁ABC	-4270
aging	-4271
ellow	-4272
▁Only	-4273
▁valu	-4274
▁estim	-4275
▁propos	-4276
▁surger	-4277
▁values	-4278
▁charged	-4279
▁�����̿�	-4280
���߾���.	-4281
▁community	-4282
▁potential	-4283
▁purchased	-4284
▁resources	-4285
ED	-4286
▁Ad	-4287
▁bow	-4288
▁hous	-4289
▁wake	-4290
▁wine	-4291
ertain	-4292
▁ahead	-4293
▁funny	-4294
▁keeps	-4295
▁throw	-4296
▁���÷�	-4297
▁commer	-4298
▁corpor	-4299
▁employ	-4300
▁stores	-4301
▁village	-4302
▁���׿���	-4303
▁excellent	-4304
Due	-4305
raw	-4306
▁70	-4307
iest	-4308
mark	-4309
°���	-4310
▁kit	-4311
▁pan	-4312
▁rid	-4313
▁died	-4314
▁�޽��	-4315
▁calls	-4316
▁songs	-4317
▁career	-4318
▁occurs	-4319
▁safely	-4320
▁accurate	-4321
▁surround	-4322
▁�����߾�.	-4323
▁essential	-4324
▁possibility	-4325
▁31	-4326
▁Ye	-4327
empt	-4328
▁neck	-4329
▁�ʹ�.	-4330
▁India	-4331
▁���͸�	-4332
▁animal	-4333
▁assist	-4334
▁�����ٰ	-4335
▁Germany	-4336
▁letters	-4337
▁opening	-4338
zz	-4339
�޶	-4340
rict	-4341
yeon	-4342
▁joy	-4343
▁dogs	-4344
▁pork	-4345
▁quot	-4346
▁stor	-4347
ancing	-4348
▁began	-4349
▁click	-4350
▁plant	-4351
▁units	-4352
▁assess	-4353
▁filled	-4354
▁flower	-4355
▁humans	-4356
▁section	-4357
▁stopped	-4358
▁�����̵�	-4359
▁opinions	-4360
▁programs	-4361
▁consumers	-4362
▁�̷�������	-4363
EO	-4364
ray	-4365
enge	-4366
▁���̹	-4367
ternal	-4368
▁knows	-4369
▁sugar	-4370
▁�ʾ���	-4371
▁inquir	-4372
▁remind	-4373
▁amazing	-4374
▁someday	-4375
▁cultural	-4376
▁familiar	-4377
▁continuously	-4378
▁registration	-4379
▁manufacturing	-4380
IN	-4381
▁x	-4382
orn	-4383
vey	-4384
▁�׼	-4385
vent	-4386
▁bul	-4387
board	-4388
verse	-4389
▁Gang	-4390
▁hasn	-4391
▁���𿡼	-4392
▁Check	-4393
▁novel	-4394
▁prote	-4395
▁attack	-4396
▁booked	-4397
fficient	-4398
▁himself	-4399
▁plastic	-4400
▁download	-4401
▁improved	-4402
▁contacted	-4403
▁recommended	-4404
-1	-4405
hol	-4406
�͸�	-4407
soci	-4408
͸���	-4409
▁�̵�	-4410
▁�͸�	-4411
��̸�	-4412
▁Amaz	-4413
idents	-4414
▁evalu	-4415
▁lines	-4416
▁piano	-4417
▁waste	-4418
▁yours	-4419
aration	-4420
▁setting	-4421
▁surgery	-4422
▁�����԰�	-4423
▁evidence	-4424
▁wondering	-4425
▁graduation	-4426
▁6�	-4427
ache	-4428
umst	-4429
uted	-4430
▁Cal	-4431
▁Day	-4432
▁web	-4433
▁�˻�	-4434
arily	-4435
▁hall	-4436
▁rout	-4437
▁aware	-4438
▁decor	-4439
▁tight	-4440
▁budget	-4441
ological	-4442
▁discussion	-4443
▁convenience	-4444
ls	-4445
amb	-4446
▁AS	-4447
▁Ge	-4448
�ٰ�	-4449
00��	-4450
▁inj	-4451
▁King	-4452
▁chem	-4453
▁empt	-4454
▁surv	-4455
▁tall	-4456
▁�̼���	-4457
▁causes	-4458
▁leaves	-4459
▁simply	-4460
▁useful	-4461
▁arrange	-4462
▁consist	-4463
▁flowers	-4464
▁helping	-4465
▁expression	-4466
sy	-4467
pro	-4468
▁mel	-4469
▁��	-4470
adays	-4471
ondon	-4472
osing	-4473
▁cere	-4474
▁chan	-4475
▁math	-4476
▁qual	-4477
Before	-4478
▁associ	-4479
▁easier	-4480
▁export	-4481
▁missed	-4482
▁pieces	-4483
▁growing	-4484
▁workers	-4485
▁�����̱�	-4486
▁connection	-4487
▁definitely	-4488
▁impressive	-4489
▁-	-4490
:30	-4491
gle	-4492
lies	-4493
▁mic	-4494
▁crow	-4495
▁hung	-4496
▁situ	-4497
▁visa	-4498
▁ware	-4499
▁���̺	-4500
▁truly	-4501
▁worse	-4502
▁asleep	-4503
▁defend	-4504
▁lesson	-4505
▁archite	-4506
▁nervous	-4507
▁profile	-4508
▁Everyone	-4509
▁accepted	-4510
▁challeng	-4511
▁Everything	-4512
▁confidence	-4513
▁���3⁄4���.	-4514
▁restaurants	-4515
4��	-4516
׽��	-4517
▁�˱	-4518
̿���	-4519
޿���	-4520
▁Any	-4521
▁sle	-4522
asant	-4523
""����	-4524
Thanks	-4525
▁court	-4526
▁seats	-4527
▁Amazon	-4528
▁faster	-4529
▁images	-4530
▁manual	-4531
▁packing	-4532
▁misunder	-4533
▁tracking	-4534
▁scheduled	-4535
▁��������?"	-4536
▁disappointed	-4537
Θρ	-4538
ses	-4539
▁IT	-4540
▁ir	-4541
▁�1	-4542
cuse	-4543
icon	-4544
wers	-4545
▁Brit	-4546
▁golf	-4547
▁���̱	-4548
ession	-4549
▁Taiwan	-4550
▁batter	-4551
▁dreams	-4552
▁observ	-4553
▁series	-4554
▁solved	-4555
▁talent	-4556
▁calling	-4557
▁curious	-4558
▁factors	-4559
▁minimum	-4560
▁parking	-4561
▁stories	-4562
▁procedure	-4563
▁ô	-4564
aek	-4565
hest	-4566
▁ban	-4567
▁lif	-4568
iform	-4569
usion	-4570
̳���?	-4571
▁exec	-4572
▁spot	-4573
ateful	-4574
▁categ	-4575
ecently	-4576
▁length	-4577
▁���׷��	-4578
standing	-4579
▁capital	-4580
▁divided	-4581
▁smoking	-4582
▁electron	-4583
▁internal	-4584
▁teaching	-4585
▁Ī	-4586
▁8�	-4587
hold	-4588
ived	-4589
pper	-4590
arter	-4591
stood	-4592
▁Year	-4593
▁fans	-4594
▁wash	-4595
��鿡��	-4596
ietnam	-4597
inated	-4598
▁laugh	-4599
▁meant	-4600
Through	-4601
ovember	-4602
▁allows	-4603
▁artist	-4604
▁buying	-4605
▁closer	-4606
▁groups	-4607
▁master	-4608
▁seemed	-4609
▁�����⿡	-4610
▁depress	-4611
▁methods	-4612
▁�߾���."	-4613
▁investig	-4614
▁requires	-4615
▁promotion	-4616
▁throughout	-4617
▁examination	-4618
wh	-4619
▁For	-4620
▁pet	-4621
▁wel	-4622
▁farm	-4623
,000��	-4624
▁Sorry	-4625
▁empty	-4626
▁London	-4627
▁Vietnam	-4628
▁guarant	-4629
▁holding	-4630
▁cleaning	-4631
▁grateful	-4632
▁informed	-4633
▁remaining	-4634
▁attachment	-4635
Do	-4636
gy	-4637
▁Fl	-4638
▁IP	-4639
ened	-4640
▁Tom	-4641
▁esc	-4642
▁�ٰ�	-4643
agram	-4644
▁Sing	-4645
▁upgr	-4646
▁yellow	-4647
▁�1⁄2��	-4648
▁November	-4649
▁standing	-4650
▁experienced	-4651
�߾	-4652
▁�	-4653
▁gard	-4654
▁���޾	-4655
▁absor	-4656
▁relig	-4657
▁���̷�	-4658
▁issued	-4659
▁server	-4660
▁singer	-4661
▁sounds	-4662
▁source	-4663
▁arrival	-4664
▁complex	-4665
▁disease	-4666
▁updated	-4667
▁independ	-4668
▁suitable	-4669
▁teachers	-4670
▁Sometimes	-4671
▁insurance	-4672
▁automatically	-4673
▁��������������	-4674
.1	-4675
eg	-4676
¿�	-4677
�鿡	-4678
rug	-4679
chen	-4680
lder	-4681
rier	-4682
▁Was	-4683
▁map	-4684
▁suc	-4685
anged	-4686
oogle	-4687
▁path	-4688
▁quit	-4689
father	-4690
▁Asian	-4691
▁force	-4692
▁highly	-4693
▁makeup	-4694
▁models	-4695
▁reward	-4696
▁�����̱	-4697
▁depends	-4698
▁economy	-4699
▁succeed	-4700
▁uniform	-4701
▁baseball	-4702
▁benefits	-4703
▁circumst	-4704
▁container	-4705
▁implement	-4706
▁satisfact	-4707
▁reasonable	-4708
▁differences	-4709
AT	-4710
ES	-4711
ube	-4712
umn	-4713
▁�޺	-4714
pite	-4715
▁Ear	-4716
▁lad	-4717
▁brain	-4718
▁failed	-4719
▁latest	-4720
▁option	-4721
▁shower	-4722
▁urgent	-4723
cription	-4724
▁carried	-4725
▁compens	-4726
▁realize	-4727
▁creative	-4728
▁features	-4729
▁somewhere	-4730
fortunately	-4731
▁attractive	-4732
▁components	-4733
▁destination	-4734
af	-4735
een	-4736
▁cru	-4737
▁pow	-4738
cohol	-4739
▁argu	-4740
▁frame	-4741
▁serve	-4742
▁guests	-4743
▁kindly	-4744
▁placed	-4745
▁salary	-4746
▁inquiry	-4747
▁massage	-4748
▁overall	-4749
▁storage	-4750
▁�ٰ�����	-4751
▁advertising	-4752
▁distribution	-4753
▁advertisement	-4754
pid	-4755
▁Gr	-4756
▁Tra	-4757
▁Use	-4758
'����	-4759
▁���𰡸	-4760
Excuse	-4761
ailand	-4762
▁liter	-4763
▁England	-4764
▁vehicle	-4765
▁���̾���	-4766
▁approved	-4767
▁property	-4768
▁reserved	-4769
▁cosmetics	-4770
▁commercial	-4771
▁impression	-4772
▁population	-4773
▁"����������,	-4774
Let	-4775
for	-4776
▁28	-4777
��⸦	-4778
onna	-4779
▁Her	-4780
▁enh	-4781
▁fra	-4782
ishes	-4783
night	-4784
▁hero	-4785
▁kill	-4786
▁king	-4787
▁mood	-4788
▁Hotel	-4789
▁actor	-4790
▁names	-4791
▁���𰡸�	-4792
lection	-4793
▁calcul	-4794
▁�����	-4795
▁anytime	-4796
▁whatever	-4797
Our	-4798
urb	-4799
�޷�	-4800
cles	-4801
irty	-4802
lict	-4803
▁dad	-4804
▁raw	-4805
��̴�	-4806
ilies	-4807
▁fear	-4808
During	-4809
▁crowd	-4810
▁label	-4811
▁aspect	-4812
▁female	-4813
▁lonely	-4814
▁theater	-4815
▁tourist	-4816
▁National	-4817
▁Students	-4818
▁Thailand	-4819
▁deadline	-4820
▁partners	-4821
▁perspect	-4822
▁proposal	-4823
▁thankful	-4824
▁valuable	-4825
▁broadcast	-4826
▁participated	-4827
▁&	-4828
▁Af	-4829
�̶�	-4830
▁Har	-4831
▁cit	-4832
▁gym	-4833
▁hom	-4834
iring	-4835
▁meas	-4836
▁cheer	-4837
▁cloud	-4838
▁expand	-4839
▁height	-4840
▁multip	-4841
▁tempor	-4842
▁�����	-4843
▁counter	-4844
▁organiz	-4845
▁sitting	-4846
▁�߻�����	-4847
����̶���	-4848
▁expenses	-4849
▁installed	-4850
▁sincerely	-4851
▁suggested	-4852
▁CO	-4853
▁Per	-4854
Every	-4855
▁capt	-4856
▁pupp	-4857
▁wood	-4858
���̰�	-4859
▁agent	-4860
▁tough	-4861
▁10,000	-4862
▁desire	-4863
▁gather	-4864
▁invite	-4865
▁minute	-4866
▁alcohol	-4867
▁comment	-4868
▁establish	-4869
▁situations	-4870
▁smartphone	-4871
bon	-4872
nis	-4873
▁CD	-4874
�̰�	-4875
Next	-4876
omach	-4877
▁calm	-4878
▁breat	-4879
▁drama	-4880
▁innov	-4881
����."	-4882
▁deeply	-4883
▁shared	-4884
▁�߿�����	-4885
▁graduate	-4886
����̿���.	-4887
▁challenge	-4888
▁perfectly	-4889
▁facilities	-4890
gn	-4891
ket	-4892
ror	-4893
▁Ji	-4894
▁�	-4895
Well	-4896
cean	-4897
imin	-4898
▁20�	-4899
▁�̼�	-4900
These	-4901
isions	-4902
▁labor	-4903
▁slight	-4904
▁wealth	-4905
▁although	-4906
▁enjoying	-4907
▁everyday	-4908
▁appearance	-4909
60	-4910
ƼL	-4911
egr	-4912
ler	-4913
ows	-4914
▁7�	-4915
▁90	-4916
▁IS	-4917
▁Sw	-4918
▁�⸧	-4919
chan	-4920
resp	-4921
ship	-4922
▁15��	-4923
▁Dong	-4924
▁band	-4925
▁burd	-4926
▁trees	-4927
▁Google	-4928
▁grades	-4929
▁spirit	-4930
▁stayed	-4931
▁volume	-4932
▁ceremon	-4933
▁kitchen	-4934
▁officer	-4935
▁stomach	-4936
▁�ʿ�����	-4937
▁"�������	-4938
▁bathroom	-4939
▁families	-4940
▁incident	-4941
▁requests	-4942
▁submitted	-4943
▁conference	-4944
▁developing	-4945
Am	-4946
IC	-4947
OS	-4948
ڴٴ	-4949
߰ߵ	-4950
▁Ƣ	-4951
cks	-4952
hand	-4953
ustr	-4954
▁Two	-4955
▁dou	-4956
icing	-4957
icles	-4958
▁jour	-4959
▁soul	-4960
▁summ	-4961
amsung	-4962
׷�����	-4963
▁brief	-4964
▁stars	-4965
▁�˻���	-4966
imately	-4967
▁museum	-4968
▁systems	-4969
▁�׷���?"	-4970
▁comments	-4971
▁password	-4972
▁���̾���.	-4973
▁grandfather	-4974
▁significant	-4975
▁'�	-4976
▁bi	-4977
Like	-4978
onst	-4979
rest	-4980
adium	-4981
▁dust	-4982
▁sort	-4983
atform	-4984
▁Paris	-4985
▁fruit	-4986
▁cities	-4987
▁seller	-4988
▁tastes	-4989
▁initial	-4990
▁conflict	-4991
▁involved	-4992
▁passport	-4993
▁importance	-4994
CC	-4995
eed	-4996
▁2.	-4997
▁45	-4998
lear	-4999
mble	-5000
yond	-5001
▁198	-5002
▁Fed	-5003
▁Res	-5004
▁Won	-5005
▁ath	-5006
apore	-5007
▁Give	-5008
▁Mark	-5009
▁disp	-5010
▁jump	-5011
▁liqu	-5012
phones	-5013
▁'����	-5014
▁attra	-5015
▁withd	-5016
▁marked	-5017
▁failure	-5018
▁���̾����	-5019
▁warehouse	-5020
▁transaction	-5021
▁introduction	-5022
ji	-5023
ki	-5024
¡�	-5025
sec	-5026
▁0.	-5027
▁Su	-5028
phas	-5029
iency	-5030
▁Send	-5031
▁bird	-5032
▁�̷��	-5033
����̾	-5034
igence	-5035
▁citiz	-5036
▁newly	-5037
▁oppos	-5038
▁plants	-5039
▁strict	-5040
▁airline	-5041
▁univers	-5042
▁relative	-5043
▁strategy	-5044
▁concerned	-5045
▁�����̵���	-5046
▁�������̸�	-5047
▁eventually	-5048
▁"����������	-5049
▁environmental	-5050
2�	-5051
fl	-5052
°��	-5053
��	-5054
aint	-5055
aper	-5056
know	-5057
▁eth	-5058
apers	-5059
cking	-5060
ulate	-5061
▁asse	-5062
▁beef	-5063
▁legs	-5064
▁terr	-5065
▁wire	-5066
▁Shall	-5067
▁habit	-5068
▁plate	-5069
▁river	-5070
▁thick	-5071
▁toile	-5072
▁upset	-5073
▁�̺���	-5074
▁���𿡼�	-5075
▁School	-5076
▁obtain	-5077
▁paying	-5078
▁Samsung	-5079
▁answers	-5080
▁�1⁄4���	-5081
▁������?"	-5082
▁Singapore	-5083
▁languages	-5084
▁evaluation	-5085
▁processing	-5086
▁Ź	-5087
dom	-5088
▁�	-5089
Just	-5090
appy	-5091
itam	-5092
ites	-5093
term	-5094
▁Jin	-5095
▁Try	-5096
▁led	-5097
▁unc	-5098
��̽�	-5099
iving	-5100
▁Hall	-5101
▁bicy	-5102
▁insp	-5103
▁Italy	-5104
▁cable	-5105
ctually	-5106
▁adults	-5107
▁income	-5108
▁integr	-5109
▁lovely	-5110
▁speech	-5111
▁threat	-5112
▁victim	-5113
▁���࿡��	-5114
▁noodles	-5115
▁���߿���	-5116
▁certainly	-5117
▁efficient	-5118
▁"��������,	-5119
▁purchasing	-5120
▁concentrate	-5121
TS	-5122
ٴڿ	-5123
󸶸�	-5124
rep	-5125
▁Mo	-5126
▁PM	-5127
acity	-5128
going	-5129
▁100%	-5130
▁Each	-5131
▁Pres	-5132
▁fant	-5133
▁Afric	-5134
▁crime	-5135
▁usual	-5136
actions	-5137
▁mechan	-5138
▁2������	-5139
▁dancing	-5140
▁highest	-5141
▁keeping	-5142
▁normally	-5143
▁interpret	-5144
▁���̽�����	-5145
▁preparation	-5146
▁installation	-5147
▁manufacturer	-5148
cil	-5149
▁Me	-5150
▁iP	-5151
��׽	-5152
Talk	-5153
wang	-5154
▁10%	-5155
▁deb	-5156
▁hop	-5157
haust	-5158
▁push	-5159
▁���	-5160
▁loves	-5161
▁�׶���	-5162
▁boring	-5163
▁mainly	-5164
▁unable	-5165
▁designer	-5166
▁mistakes	-5167
▁software	-5168
▁sensitive	-5169
▁�̾�������	-5170
▁improvement	-5171
▁����������."	-5172
▁accommodation	-5173
IP	-5174
Ye	-5175
ky	-5176
ƽó	-5177
ǸŰ	-5178
鿡�	-5179
500	-5180
7��	-5181
udd	-5182
rupt	-5183
wise	-5184
▁�;	-5185
aches	-5186
▁burn	-5187
▁drug	-5188
▁fees	-5189
▁mode	-5190
▁rule	-5191
▁beyond	-5192
▁emphas	-5193
▁scener	-5194
▁wallet	-5195
▁attempt	-5196
▁concern	-5197
▁exhaust	-5198
▁totally	-5199
▁pleasant	-5200
▁pleasure	-5201
▁extremely	-5202
▁signature	-5203
▁"�̾�������,	-5204
▁opportunities	-5205
una	-5206
▁Co	-5207
ades	-5208
angh	-5209
lymp	-5210
▁Rep	-5211
▁�⵵�	-5212
aries	-5213
ender	-5214
esome	-5215
▁Look	-5216
▁jack	-5217
▁8����	-5218
▁Olymp	-5219
▁ended	-5220
▁gonna	-5221
▁joint	-5222
▁meals	-5223
▁plays	-5224
▁slept	-5225
▁valid	-5226
▁whose	-5227
▁�߽���	-5228
▁Gyeong	-5229
▁taught	-5230
▁tennis	-5231
▁therap	-5232
▁British	-5233
▁revised	-5234
▁sharing	-5235
▁willing	-5236
▁�˷�����	-5237
▁�̿�����	-5238
▁applying	-5239
▁cultures	-5240
▁�����׿�.	-5241
▁assignment	-5242
▁contacting	-5243
Unfortunately	-5244
bum	-5245
iny	-5246
▁�޹	-5247
iber	-5248
̷���	-5249
▁anx	-5250
▁mat	-5251
▁sen	-5252
▁sty	-5253
Among	-5254
idden	-5255
¡����	-5256
▁Part	-5257
▁phen	-5258
▁sand	-5259
▁���鿡	-5260
ousand	-5261
▁homet	-5262
▁steps	-5263
���鿡��	-5264
iveness	-5265
▁�;����	-5266
▁�����̽	-5267
▁Airport	-5268
▁discrim	-5269
▁expense	-5270
▁markets	-5271
▁predict	-5272
▁�����ʹ�	-5273
▁hometown	-5274
▁identify	-5275
▁overcome	-5276
▁defendant	-5277
▁memorable	-5278
▁pollution	-5279
▁translate	-5280
▁satisfaction	-5281
▁relationships	-5282
unt	-5283
▁9�	-5284
▁il	-5285
▁�̽	-5286
�޶�	-5287
bies	-5288
ello	-5289
food	-5290
lled	-5291
zing	-5292
▁Com	-5293
▁UPS	-5294
▁seek	-5295
▁thin	-5296
▁bored	-5297
▁illeg	-5298
▁rapid	-5299
▁resol	-5300
▁branch	-5301
▁detect	-5302
▁exclud	-5303
▁expert	-5304
▁houses	-5305
▁toilet	-5306
▁���鿡��	-5307
Recently	-5308
▁century	-5309
▁complic	-5310
▁pattern	-5311
▁singing	-5312
▁followed	-5313
▁friendly	-5314
▁platform	-5315
▁friendship	-5316
▁participating	-5317
▁������������.	-5318
CO	-5319
Is	-5320
մԵ	-5321
޸�	-5322
▁ȹ	-5323
�⵵	-5324
the	-5325
vin	-5326
▁Sy	-5327
▁ju	-5328
aven	-5329
cies	-5330
mbol	-5331
page	-5332
rees	-5333
▁USA	-5334
▁aim	-5335
▁ded	-5336
▁rom	-5337
known	-5338
▁hole	-5339
▁magn	-5340
▁shot	-5341
▁terri	-5342
▁��1⁄4	-5343
llation	-5344
▁adding	-5345
▁basket	-5346
▁critic	-5347
▁����?"	-5348
,000����	-5349
▁operating	-5350
▁processed	-5351
▁statement	-5352
▁���߾���."	-5353
▁leadership	-5354
gen	-5355
ids	-5356
▁id	-5357
��	-5358
▁Des	-5359
▁rat	-5360
▁rob	-5361
▁sym	-5362
itate	-5363
▁Come	-5364
▁Jung	-5365
▁cher	-5366
▁decl	-5367
▁fort	-5368
▁��°,	-5369
▁���̼	-5370
���̸�	-5371
▁basis	-5372
▁blank	-5373
▁cards	-5374
▁draft	-5375
▁input	-5376
▁�׺���	-5377
▁corner	-5378
▁degree	-5379
▁potato	-5380
▁scared	-5381
▁scient	-5382
▁Indones	-5383
▁awesome	-5384
▁finding	-5385
▁scenery	-5386
▁smaller	-5387
▁treated	-5388
▁phenomen	-5389
▁projects	-5390
▁Instagram	-5391
▁cellphone	-5392
▁volunteer	-5393
BA	-5394
▁ĸ	-5395
agn	-5396
hop	-5397
ode	-5398
▁2,	-5399
▁Sa	-5400
▁�⿩	-5401
etic	-5402
rast	-5403
rite	-5404
▁cas	-5405
▁gri	-5406
▁hes	-5407
▁spl	-5408
▁�޷�	-5409
▁�߻�	-5410
cient	-5411
▁army	-5412
▁cart	-5413
▁mall	-5414
▁prop	-5415
▁sett	-5416
▁susp	-5417
▁̧���	-5418
���̶�	-5419
ducing	-5420
essert	-5421
undred	-5422
▁crazy	-5423
▁tasks	-5424
▁�̲���	-5425
▁�̾���	-5426
▁compos	-5427
▁embarr	-5428
▁forest	-5429
▁surely	-5430
▁Station	-5431
▁monthly	-5432
▁�����?	-5433
▁emergency	-5434
▁explained	-5435
▁organized	-5436
▁sentences	-5437
▁introduced	-5438
▁inconvenience	-5439
ho	-5440
þƿ	-5441
ضج	-5442
▁Ķ	-5443
▁Br	-5444
amen	-5445
▁Art	-5446
▁bat	-5447
▁civ	-5448
▁gun	-5449
▁mir	-5450
▁¥��	-5451
rency	-5452
using	-5453
vered	-5454
▁Both	-5455
▁mask	-5456
▁pool	-5457
▁rank	-5458
pected	-5459
▁doubt	-5460
▁eight	-5461
▁marry	-5462
▁20����	-5463
▁exclus	-5464
▁retail	-5465
▁videos	-5466
▁reserve	-5467
▁testing	-5468
▁clothing	-5469
▁consumer	-5470
▁director	-5471
▁emotions	-5472
▁embarrass	-5473
▁�������̶�	-5474
▁established	-5475
▁difficulties	-5476
40	-5477
Pal	-5478
¥��	-5479
▁�󱼿	-5480
edom	-5481
▁Its	-5482
▁��¿	-5483
ounds	-5484
place	-5485
▁pron	-5486
itions	-5487
▁7����	-5488
▁Young	-5489
▁award	-5490
▁boxes	-5491
▁chair	-5492
▁goals	-5493
▁motiv	-5494
▁smoke	-5495
▁teeth	-5496
▁�޿���	-5497
▁���޵�	-5498
▁approx	-5499
▁intell	-5500
▁raised	-5501
▁symbol	-5502
▁worker	-5503
Actually	-5504
▁dessert	-5505
▁imagine	-5506
▁texture	-5507
▁�ʹ�����	-5508
▁capacity	-5509
▁ceremony	-5510
▁weakness	-5511
▁difficulty	-5512
Any	-5513
bed	-5514
reg	-5515
ulf	-5516
▁dy	-5517
ards	-5518
gage	-5519
ibly	-5520
inct	-5521
osen	-5522
urse	-5523
utor	-5524
▁Dep	-5525
▁sac	-5526
��̿�	-5527
Hello	-5528
asion	-5529
gment	-5530
ublic	-5531
▁guid	-5532
estern	-5533
orough	-5534
overed	-5535
▁apart	-5536
▁faith	-5537
▁honor	-5538
▁saved	-5539
▁weird	-5540
▁altern	-5541
▁theory	-5542
▁thinks	-5543
▁���߾�.	-5544
▁musical	-5545
▁kindness	-5546
▁thousand	-5547
▁tourists	-5548
▁suffering	-5549
▁understood	-5550
▁competitive	-5551
▁engineering	-5552
▁cancellation	-5553
2.	-5554
25	-5555
AN	-5556
wa	-5557
jin	-5558
▁Pa	-5559
▁Sc	-5560
haps	-5561
ties	-5562
▁CEO	-5563
▁Mac	-5564
▁cab	-5565
▁pad	-5566
󿡼���	-5567
▁Even	-5568
▁fare	-5569
▁prec	-5570
▁scen	-5571
▁sets	-5572
▁���񽺿	-5573
coming	-5574
▁lucky	-5575
▁rough	-5576
▁skill	-5577
▁sympt	-5578
▁tests	-5579
▁PayPal	-5580
▁flavor	-5581
▁histor	-5582
▁medium	-5583
▁options	-5584
▁anywhere	-5585
▁chemical	-5586
▁multiple	-5587
▁promised	-5588
▁uploaded	-5589
▁buildings	-5590
▁classroom	-5591
▁intention	-5592
▁naturally	-5593
▁circumstances	-5594
▁consideration	-5595
An	-5596
oi	-5597
men	-5598
esus	-5599
hone	-5600
iors	-5601
jang	-5602
rete	-5603
▁EMS	-5604
▁har	-5605
▁pal	-5606
itory	-5607
▁Keep	-5608
▁ment	-5609
▁pull	-5610
▁ring	-5611
▁���÷	-5612
▁���	-5613
▁"�׷�,	-5614
▁sides	-5615
▁tools	-5616
▁youth	-5617
iration	-5618
▁Hanbok	-5619
▁afford	-5620
▁annual	-5621
▁�����	-5622
▁contest	-5623
▁enterpr	-5624
▁shipper	-5625
▁���ʿ���	-5626
▁describe	-5627
▁machines	-5628
▁construct	-5629
▁entertain	-5630
▁packaging	-5631
▁recognize	-5632
▁"�˼�������,	-5633
AP	-5634
po	-5635
▁ǫ	-5636
6��	-5637
box	-5638
▁35	-5639
▁OS	-5640
▁ge	-5641
ifts	-5642
▁hat	-5643
▁nor	-5644
�鿡��	-5645
▁cast	-5646
▁logo	-5647
▁pair	-5648
▁���	-5649
▁bless	-5650
▁magaz	-5651
▁theme	-5652
▁���԰�	-5653
ciation	-5654
▁German	-5655
▁factor	-5656
▁signed	-5657
▁���̴�.	-5658
▁cheaper	-5659
▁schools	-5660
▁washing	-5661
����̼���	-5662
itionally	-5663
▁printing	-5664
▁withdraw	-5665
▁KakaoTalk	-5666
▁celebrate	-5667
▁quotation	-5668
▁seriously	-5669
▁technical	-5670
▁electronic	-5671
▁previously	-5672
▁perspective	-5673
45	-5674
km	-5675
▁Ů	-5676
Can	-5677
More	-5678
abor	-5679
aped	-5680
ondo	-5681
▁""�	-5682
▁20%	-5683
▁Mal	-5684
▁Tur	-5685
▁rot	-5686
▁tor	-5687
▁ult	-5688
erson	-5689
ipped	-5690
upper	-5691
▁High	-5692
▁bear	-5693
▁bell	-5694
▁dorm	-5695
▁�˻��	-5696
ulated	-5697
▁climb	-5698
▁graph	-5699
▁greet	-5700
▁noise	-5701
▁�޺���	-5702
▁offers	-5703
▁reject	-5704
▁appears	-5705
▁falling	-5706
▁parties	-5707
▁accounts	-5708
▁elements	-5709
▁examples	-5710
▁moisture	-5711
▁�;�����.	-5712
▁increases	-5713
▁accomplish	-5714
▁�����̾���.	-5715
▁universities	-5716
Not	-5717
ٰ�.	-5718
▁�޲	-5719
Kore	-5720
eral	-5721
iers	-5722
iles	-5723
fered	-5724
oices	-5725
orrow	-5726
wondo	-5727
▁grew	-5728
▁nose	-5729
▁prim	-5730
▁stim	-5731
▁tire	-5732
▁virt	-5733
▁ideal	-5734
▁incor	-5735
▁mixed	-5736
▁occup	-5737
▁optim	-5738
▁steak	-5739
respond	-5740
▁""����	-5741
▁Russia	-5742
▁riding	-5743
▁Italian	-5744
▁booking	-5745
▁covered	-5746
▁demonst	-5747
▁designs	-5748
▁freedom	-5749
▁hundred	-5750
▁monitor	-5751
▁seafood	-5752
▁confused	-5753
▁handsome	-5754
▁opposite	-5755
▁stressed	-5756
▁photograph	-5757
▁neighborhood	-5758
▁International	-5759
11	-5760
ao	-5761
:00	-5762
zed	-5763
��	-5764
aked	-5765
rics	-5766
▁Ass	-5767
▁lux	-5768
▁flex	-5769
▁moon	-5770
▁phil	-5771
▁shut	-5772
▁util	-5773
▁woke	-5774
▁���;	-5775
▁���	-5776
▁blind	-5777
▁trave	-5778
▁turns	-5779
related	-5780
▁"�׸���	-5781
▁exists	-5782
▁freely	-5783
▁garden	-5784
▁joined	-5785
▁square	-5786
▁leading	-5787
▁offered	-5788
▁annivers	-5789
▁interior	-5790
▁reported	-5791
▁�����̰�,	-5792
▁efficiency	-5793
▁represents	-5794
▁complicated	-5795
IM	-5796
Sh	-5797
�˴	-5798
lla	-5799
▁Ab	-5800
▁Ed	-5801
��	-5802
aled	-5803
vest	-5804
���	-5805
aling	-5806
lines	-5807
vious	-5808
▁Good	-5809
▁cous	-5810
▁hell	-5811
▁���̻	-5812
▁Their	-5813
▁bound	-5814
▁usage	-5815
▁chosen	-5816
▁mostly	-5817
▁consign	-5818
▁earthqu	-5819
▁fishing	-5820
▁largest	-5821
▁records	-5822
▁�;���."	-5823
▁�����?	-5824
▁appeared	-5825
▁thorough	-5826
▁disappear	-5827
▁discussed	-5828
▁expressed	-5829
▁supported	-5830
▁regardless	-5831
▁individuals	-5832
yal	-5833
▁CS	-5834
▁LED	-5835
▁Pol	-5836
▁War	-5837
▁ens	-5838
��̱�	-5839
inter	-5840
itter	-5841
paper	-5842
▁eggs	-5843
▁enem	-5844
▁race	-5845
▁teen	-5846
▁ocean	-5847
▁reven	-5848
▁tooth	-5849
▁upper	-5850
▁����	-5851
����̰�	-5852
vention	-5853
▁compar	-5854
▁delete	-5855
▁�3���?	-5856
▁�����	-5857
▁bicycle	-5858
▁channel	-5859
▁entering	-5860
▁external	-5861
▁homepage	-5862
▁determine	-5863
▁encourage	-5864
▁�������̳�	-5865
▁assessment	-5866
▁correspond	-5867
�����������	-5868
80	-5869
OE	-5870
asy	-5871
lim	-5872
Some	-5873
Thus	-5874
days	-5875
raft	-5876
▁"""	-5877
▁Rem	-5878
▁psy	-5879
▁rub	-5880
▁sin	-5881
apter	-5882
otalk	-5883
▁���	-5884
��׿�.	-5885
▁100��	-5886
▁Jesus	-5887
▁dates	-5888
▁hurry	-5889
▁magic	-5890
▁scale	-5891
▁solid	-5892
▁���ʹ�	-5893
▁destro	-5894
▁losing	-5895
▁central	-5896
▁compare	-5897
▁freight	-5898
▁passing	-5899
▁�1�����	-5900
▁citizens	-5901
▁�̷������	-5902
▁conducted	-5903
▁graduated	-5904
▁producing	-5905
▁regularly	-5906
▁transform	-5907
▁basketball	-5908
▁educational	-5909
▁certification	-5910
..	-5911
12	-5912
NA	-5913
ϼ̴	-5914
�	-5915
9��	-5916
equ	-5917
▁3.	-5918
▁Bu	-5919
chol	-5920
gart	-5921
osop	-5922
rial	-5923
▁Sam	-5924
▁Ste	-5925
antic	-5926
icies	-5927
wered	-5928
▁Aren	-5929
▁pros	-5930
▁Jeong	-5931
▁annoy	-5932
▁dolls	-5933
▁uncle	-5934
Firstly	-5935
onsider	-5936
▁2016��	-5937
▁begins	-5938
▁levels	-5939
▁notify	-5940
▁resear	-5941
▁snacks	-5942
▁conclus	-5943
▁matters	-5944
▁�߽�����	-5945
indergart	-5946
▁actively	-5947
▁announce	-5948
▁exciting	-5949
▁shooting	-5950
▁subjects	-5951
▁decisions	-5952
▁practical	-5953
▁commission	-5954
▁anniversary	-5955
▁requirements	-5956
񽺴�	-5957
bye	-5958
pal	-5959
ula	-5960
yer	-5961
£��	-5962
▁Ag	-5963
▁Ky	-5964
▁LC	-5965
▁ģô	-5966
�̸�	-5967
bang	-5968
char	-5969
ouch	-5970
▁FTA	-5971
anish	-5972
iforn	-5973
istry	-5974
orter	-5975
useok	-5976
▁ends	-5977
▁gate	-5978
▁loud	-5979
▁nail	-5980
▁reve	-5981
▁�;��	-5982
▁�޷��	-5983
▁���̰	-5984
inally	-5985
▁Child	-5986
▁chart	-5987
▁judge	-5988
▁sells	-5989
▁sport	-5990
▁vitam	-5991
▁�ٰ���	-5992
▁�⻵��.	-5993
▁bottle	-5994
▁drinks	-5995
▁formal	-5996
▁remote	-5997
▁tested	-5998
▁walked	-5999
▁battery	-6000
▁remains	-6001
▁nowadays	-6002
▁processes	-6003
▁temporary	-6004
▁generation	-6005
▁electricity	-6006
▁compensation	-6007
AD	-6008
AS	-6009
ma	-6010
mo	-6011
tt	-6012
aew	-6013
ana	-6014
oto	-6015
▁LG	-6016
▁�̺	-6017
Yeah	-6018
ault	-6019
care	-6020
made	-6021
name	-6022
ores	-6023
▁mur	-6024
▁tim	-6025
▁tow	-6026
agues	-6027
aming	-6028
cribe	-6029
enced	-6030
▁50��	-6031
▁Asia	-6032
▁Jane	-6033
▁Jeon	-6034
▁arms	-6035
▁cats	-6036
▁typh	-6037
▁���׸	-6038
uclear	-6039
·�����	-6040
▁Earth	-6041
▁Women	-6042
▁airpl	-6043
▁eaten	-6044
▁elder	-6045
▁hurts	-6046
▁laund	-6047
▁seven	-6048
▁stain	-6049
▁worst	-6050
▁crying	-6051
▁filter	-6052
▁survey	-6053
▁�׸����	-6054
▁���̰�,	-6055
▁�����޾	-6056
▁devices	-6057
▁hearing	-6058
▁illegal	-6059
▁�̼�����	-6060
▁engineer	-6061
▁ordinary	-6062
▁spending	-6063
▁attending	-6064
▁authority	-6065
▁paintings	-6066
▁�����̾���	-6067
▁personally	-6068
▁transferred	-6069
▁successfully	-6070
▁concentration	-6071
OT	-6072
ius	-6073
uel	-6074
▁Ms	-6075
▁Po	-6076
▁�	-6077
aded	-6078
anna	-6079
orge	-6080
then	-6081
wide	-6082
▁tom	-6083
▁�󱼿�	-6084
��ʹ�	-6085
order	-6086
▁lens	-6087
▁lies	-6088
▁lock	-6089
▁male	-6090
Lastly	-6091
anging	-6092
ensive	-6093
▁immig	-6094
▁paste	-6095
▁trash	-6096
▁acting	-6097
▁exceed	-6098
▁gained	-6099
▁iPhone	-6100
▁liquid	-6101
▁modify	-6102
▁Chuseok	-6103
▁emotion	-6104
▁lessons	-6105
▁upgrade	-6106
▁��1⁄4��	-6107
▁philosop	-6108
▁recorded	-6109
▁repeated	-6110
▁slightly	-6111
▁childhood	-6112
▁collection	-6113
2,	-6114
3�	-6115
70	-6116
All	-6117
asc	-6118
off	-6119
▁3,	-6120
▁AI	-6121
▁Os	-6122
▁Qu	-6123
▁UK	-6124
reed	-6125
▁12�	-6126
▁24�	-6127
▁Get	-6128
▁phr	-6129
��԰�	-6130
andom	-6131
essel	-6132
press	-6133
stick	-6134
▁fits	-6135
▁onto	-6136
▁prem	-6137
▁runs	-6138
▁Elect	-6139
▁adapt	-6140
▁civil	-6141
▁dirty	-6142
▁grown	-6143
▁renew	-6144
▁stret	-6145
▁���񽺿�	-6146
itution	-6147
▁butter	-6148
▁cooked	-6149
▁excess	-6150
▁fields	-6151
▁listed	-6152
▁punish	-6153
▁1������	-6154
▁camping	-6155
▁stadium	-6156
▁�̾�����	-6157
▁Californ	-6158
▁Festival	-6159
▁affected	-6160
▁creating	-6161
▁patience	-6162
▁policies	-6163
▁reaction	-6164
▁restrict	-6165
▁supports	-6166
▁traveled	-6167
▁Kakaotalk	-6168
▁computers	-6169
▁correctly	-6170
▁depressed	-6171
▁generally	-6172
▁happening	-6173
▁providing	-6174
▁published	-6175
indergarten	-6176
▁phenomenon	-6177
▁supporting	-6178
▁description	-6179
bu	-6180
100	-6181
ipe	-6182
rat	-6183
uis	-6184
▁�͸	-6185
bble	-6186
ingu	-6187
otto	-6188
▁fer	-6189
▁jun	-6190
▁pig	-6191
enger	-6192
iries	-6193
▁Comm	-6194
▁elev	-6195
▁fold	-6196
▁iron	-6197
▁salt	-6198
▁shar	-6199
▁forms	-6200
▁finger	-6201
▁motion	-6202
▁pocket	-6203
▁senior	-6204
▁settle	-6205
▁greatly	-6206
▁laundry	-6207
▁sticker	-6208
▁worries	-6209
▁���̵鿡��	-6210
▁���̵��	-6211
▁advanced	-6212
▁concrete	-6213
▁consists	-6214
▁priority	-6215
▁President	-6216
▁Department	-6217
▁accounting	-6218
▁meaningful	-6219
▁permission	-6220
▁translator	-6221
▁participants	-6222
IT	-6223
Ǹŵ	-6224
oot	-6225
oro	-6226
شيٴ	-6227
▁er	-6228
aken	-6229
ancy	-6230
bits	-6231
free	-6232
rink	-6233
wood	-6234
▁Bar	-6235
▁Bra	-6236
▁Pal	-6237
▁Sup	-6238
▁era	-6239
▁sav	-6240
▁East	-6241
▁Shin	-6242
▁Show	-6243
▁chew	-6244
��̾�.	-6245
▁"�׷��	-6246
▁Think	-6247
▁lying	-6248
▁outdo	-6249
▁shirt	-6250
▁stamp	-6251
▁wheel	-6252
▁belief	-6253
▁burden	-6254
▁candid	-6255
▁hungry	-6256
▁larger	-6257
▁parcel	-6258
▁resist	-6259
▁Another	-6260
▁baggage	-6261
▁courses	-6262
▁cutting	-6263
▁turning	-6264
▁audience	-6265
▁decrease	-6266
▁finishing	-6267
▁advantages	-6268
▁determined	-6269
▁foundation	-6270
▁profession	-6271
▁protection	-6272
▁sufficient	-6273
DF	-6274
▁ĵ	-6275
anc	-6276
pes	-6277
see	-6278
▁�⿬	-6279
▁Pre	-6280
▁See	-6281
▁vir	-6282
▁wet	-6283
▁�߾�	-6284
gging	-6285
leted	-6286
ollow	-6287
▁flat	-6288
ipping	-6289
▁brown	-6290
▁divor	-6291
▁lover	-6292
▁maybe	-6293
▁pants	-6294
▁scent	-6295
▁�;���	-6296
▁�̶���	-6297
▁Jackal	-6298
▁Kimchi	-6299
▁extend	-6300
▁hardly	-6301
▁jacket	-6302
▁orange	-6303
▁twenty	-6304
▁vessel	-6305
▁�̾���.	-6306
▁charges	-6307
▁dropped	-6308
▁quarter	-6309
▁academic	-6310
▁achieved	-6311
▁terrible	-6312
▁estimated	-6313
▁inquiries	-6314
▁inventory	-6315
▁constantly	-6316
▁regulations	-6317
▁discrimination	-6318
9.	-6319
ev	-6320
ms	-6321
xy	-6322
Reg	-6323
lom	-6324
▁CC	-6325
Your	-6326
aign	-6327
iant	-6328
vere	-6329
▁Red	-6330
▁pus	-6331
▁wra	-6332
entle	-6333
oring	-6334
▁beat	-6335
▁choo	-6336
▁subs	-6337
▁tiss	-6338
▁���޹	-6339
iation	-6340
▁cells	-6341
▁democ	-6342
▁juice	-6343
▁leads	-6344
▁nurse	-6345
▁pages	-6346
▁psych	-6347
▁ramen	-6348
▁sacri	-6349
▁salad	-6350
Finally	-6351
▁2015��	-6352
▁athlet	-6353
▁brings	-6354
▁believed	-6355
▁currency	-6356
▁guarantee	-6357
▁÷��������	-6358
▁�̰�������	-6359
▁strategies	-6360
▁translated	-6361
▁kindergarten	-6362
▁administration	-6363
3.	-6364
BS	-6365
yn	-6366
̹�	-6367
񽺰�	-6368
ero	-6369
gel	-6370
hel	-6371
▁�ʺ	-6372
asty	-6373
rect	-6374
▁Mic	-6375
▁Off	-6376
▁kne	-6377
▁mad	-6378
owing	-6379
̾���.	-6380
▁Next	-6381
▁Time	-6382
▁chef	-6383
▁coat	-6384
▁core	-6385
▁furn	-6386
▁laun	-6387
▁stru	-6388
arding	-6389
enture	-6390
vision	-6391
▁Spain	-6392
▁layer	-6393
▁puppy	-6394
▁"�̷���	-6395
▁Africa	-6396
▁dispos	-6397
▁lately	-6398
▁muscle	-6399
▁nights	-6400
▁stable	-6401
▁suffer	-6402
▁��°��,	-6403
▁operate	-6404
▁�3⁄4���	-6405
▁majoring	-6406
▁measured	-6407
▁measures	-6408
▁improving	-6409
▁performed	-6410
▁proceeded	-6411
▁standards	-6412
���������.	-6413
▁California	-6414
▁colleagues	-6415
▁conclusion	-6416
▁recognized	-6417
▁additionally	-6418
99	-6419
Pro	-6420
ama	-6421
arl	-6422
col	-6423
ker	-6424
·�.	-6425
▁Bo	-6426
▁Im	-6427
▁TH	-6428
ager	-6429
itar	-6430
▁123	-6431
▁API	-6432
▁cow	-6433
▁dil	-6434
▁und	-6435
agers	-6436
iture	-6437
mates	-6438
poses	-6439
▁Find	-6440
▁Prov	-6441
▁bike	-6442
▁���	-6443
anghai	-6444
߿�����	-6445
▁album	-6446
▁gramm	-6447
▁honey	-6448
▁motor	-6449
▁shops	-6450
athered	-6451
▁12����	-6452
▁Always	-6453
▁Center	-6454
▁brands	-6455
▁fruits	-6456
▁hidden	-6457
▁launch	-6458
▁posted	-6459
▁switch	-6460
Secondly	-6461
▁Company	-6462
▁artwork	-6463
▁command	-6464
▁focused	-6465
▁reached	-6466
▁���̳׿�.	-6467
▁answered	-6468
▁campaign	-6469
▁departure	-6470
▁ourselves	-6471
▁combination	-6472
Mr	-6473
gs	-6474
ýø	-6475
▁Ĩ	-6476
󺸴�	-6477
Bes	-6478
May	-6479
isa	-6480
nic	-6481
÷��	-6482
▁hi	-6483
Inst	-6484
arsh	-6485
rene	-6486
▁Fin	-6487
▁Haw	-6488
▁dur	-6489
▁pul	-6490
▁wit	-6491
▁yen	-6492
based	-6493
iques	-6494
itute	-6495
ulous	-6496
▁2018	-6497
▁bags	-6498
▁fulf	-6499
▁lady	-6500
▁mold	-6501
▁recy	-6502
▁�ٰ��	-6503
▁�޾��	-6504
▁�⸧��	-6505
enance	-6506
ooking	-6507
▁drunk	-6508
▁equal	-6509
▁radio	-6510
▁schol	-6511
Besides	-6512
quality	-6513
▁agreed	-6514
▁beside	-6515
▁gentle	-6516
▁injury	-6517
▁owners	-6518
▁picked	-6519
▁Someone	-6520
▁benefit	-6521
▁encoura	-6522
▁muscles	-6523
▁obvious	-6524
▁printed	-6525
▁promote	-6526
▁typhoon	-6527
▁critical	-6528
▁gathered	-6529
▁modified	-6530
▁powerful	-6531
▁purposes	-6532
▁component	-6533
▁interests	-6534
▁reviewing	-6535
▁continuous	-6536
1�	-6537
IS	-6538
Add	-6539
elf	-6540
how	-6541
ito	-6542
san	-6543
๰��	-6544
▁ȸȭ	-6545
jeon	-6546
pack	-6547
rant	-6548
▁Add	-6549
▁Tae	-6550
▁cig	-6551
itors	-6552
▁"�̰�	-6553
▁boat	-6554
▁exit	-6555
▁reli	-6556
▁rock	-6557
▁tone	-6558
▁weap	-6559
▁���	-6560
▁���	-6561
ensity	-6562
▁9����	-6563
▁assum	-6564
▁catal	-6565
▁chain	-6566
▁minim	-6567
▁motto	-6568
▁penal	-6569
▁tries	-6570
▁wanna	-6571
▁���񽺰�	-6572
▁absent	-6573
▁bridge	-6574
▁cancer	-6575
▁carbon	-6576
▁headqu	-6577
▁lights	-6578
▁powder	-6579
▁degrees	-6580
▁happily	-6581
▁welcome	-6582
▁Shanghai	-6583
▁airplane	-6584
ifications	-6585
▁consignee	-6586
▁corporate	-6587
▁searching	-6588
▁employment	-6589
▁invitation	-6590
▁originally	-6591
▁proceeding	-6592
▁regulation	-6593
▁maintenance	-6594
▁participation	-6595
15	-6596
16	-6597
IF	-6598
RA	-6599
kin	-6600
omy	-6601
son	-6602
yed	-6603
▁6.	-6604
▁AA	-6605
▁Ne	-6606
▁�𸥴	-6607
illa	-6608
׿���	-6609
▁Ins	-6610
▁fif	-6611
▁nar	-6612
▁wid	-6613
▁�˾�	-6614
aewon	-6615
inate	-6616
▁Song	-6617
▁Taek	-6618
▁adop	-6619
▁cott	-6620
▁fool	-6621
▁rude	-6622
▁stew	-6623
urning	-6624
̶�����	-6625
▁booth	-6626
▁fever	-6627
▁pasta	-6628
▁sites	-6629
▁straw	-6630
▁teams	-6631
▁���񽺴�	-6632
ultural	-6633
▁Market	-6634
▁cleans	-6635
▁differ	-6636
▁killed	-6637
▁patent	-6638
▁phones	-6639
▁promot	-6640
▁writer	-6641
��̾����	-6642
friendly	-6643
▁arrives	-6644
▁coating	-6645
▁courage	-6646
▁digital	-6647
▁glasses	-6648
▁managed	-6649
▁mission	-6650
▁nuclear	-6651
▁smiling	-6652
▁tourism	-6653
▁arranged	-6654
▁payments	-6655
▁presents	-6656
▁romantic	-6657
▁strongly	-6658
▁Indonesia	-6659
▁exhausted	-6660
▁newspaper	-6661
▁selection	-6662
▁separated	-6663
▁challenges	-6664
▁everywhere	-6665
▁suggestion	-6666
▁instructions	-6667
▁particularly	-6668
4.	-6669
ٰԿ	-6670
򰡸�	-6671
Des	-6672
lig	-6673
wor	-6674
▁EX	-6675
▁SP	-6676
aser	-6677
fess	-6678
ushi	-6679
▁15�	-6680
▁Spe	-6681
▁amb	-6682
▁dip	-6683
▁ski	-6684
▁soy	-6685
▁umb	-6686
▁�̽�	-6687
imbap	-6688
▁Bank	-6689
▁Mich	-6690
▁cris	-6691
▁hire	-6692
▁pill	-6693
▁pump	-6694
▁���޽	-6695
▁alarm	-6696
▁bloss	-6697
▁gifts	-6698
▁horse	-6699
▁metal	-6700
▁micro	-6701
▁numer	-6702
▁prove	-6703
▁�±���	-6704
▁�¿���	-6705
Instead	-6706
▁Indian	-6707
▁autumn	-6708
▁errors	-6709
▁format	-6710
▁landsc	-6711
▁loving	-6712
▁repeat	-6713
▁unlike	-6714
Moreover	-6715
Whenever	-6716
▁despite	-6717
▁removed	-6718
▁seasons	-6719
▁arriving	-6720
▁greatest	-6721
▁smoothly	-6722
▁�������ٰ�	-6723
▁procedures	-6724
▁conditioner	-6725
▁architecture	-6726
▁organizations	-6727
▁(	-6728
ixt	-6729
▁Jj	-6730
▁ͅ�	-6731
▁�͹	-6732
��⿡	-6733
bors	-6734
down	-6735
grat	-6736
hern	-6737
▁150	-6738
▁Int	-6739
▁den	-6740
▁god	-6741
Other	-6742
olute	-6743
▁mart	-6744
▁pure	-6745
iments	-6746
▁Hawai	-6747
▁funds	-6748
▁guard	-6749
▁prize	-6750
▁rates	-6751
▁stead	-6752
▁talks	-6753
▁truck	-6754
▁umbre	-6755
,000���	-6756
▁Paypal	-6757
▁desper	-6758
▁frustr	-6759
▁papers	-6760
▁resort	-6761
▁�ʾ����	-6762
▁�˷���.	-6763
▁Nothing	-6764
▁besides	-6765
▁crowded	-6766
▁deleted	-6767
▁pleased	-6768
▁princip	-6769
▁profits	-6770
▁seconds	-6771
▁meetings	-6772
▁religion	-6773
▁visitors	-6774
▁exclusive	-6775
▁foreigner	-6776
▁earthquake	-6777
▁strengthen	-6778
▁independent	-6779
AR	-6780
CS	-6781
EL	-6782
EM	-6783
ER	-6784
da	-6785
ǸŸ	-6786
.""	-6787
ael	-6788
uct	-6789
̴�.	-6790
▁BL	-6791
▁Ho	-6792
▁LA	-6793
oned	-6794
upid	-6795
▁30%	-6796
▁400	-6797
▁Att	-6798
▁Cor	-6799
▁Gir	-6800
▁Mus	-6801
▁beg	-6802
▁ble	-6803
▁jew	-6804
▁�±�	-6805
Which	-6806
acing	-6807
iance	-6808
years	-6809
▁1���	-6810
▁crim	-6811
▁scar	-6812
1⁄4���	-6813
hentic	-6814
▁Write	-6815
▁falls	-6816
▁pride	-6817
▁recru	-6818
Further	-6819
▁Custom	-6820
▁cousin	-6821
▁flying	-6822
▁fundam	-6823
▁mirror	-6824
▁salmon	-6825
,000,000	-6826
▁aspects	-6827
▁congrat	-6828
▁creates	-6829
▁moments	-6830
▁noticed	-6831
▁streets	-6832
▁�׶�����	-6833
▁Children	-6834
▁chatting	-6835
▁criminal	-6836
▁fighting	-6837
▁somebody	-6838
▁continued	-6839
▁impressed	-6840
▁designated	-6841
▁ingredient	-6842
׵�	-6843
▁ĭ	-6844
▁ǻ	-6845
�	-6846
hee	-6847
▁By	-6848
▁Ro	-6849
▁ST	-6850
ales	-6851
oles	-6852
osis	-6853
town	-6854
ٰ���	-6855
▁Act	-6856
▁Jen	-6857
▁dim	-6858
▁gap	-6859
▁kim	-6860
▁rab	-6861
▁ren	-6862
▁rum	-6863
▁voc	-6864
▁�˸�	-6865
▁��?	-6866
▁�𸣰�	-6867
▁Serv	-6868
▁defe	-6869
▁hide	-6870
▁laws	-6871
▁neat	-6872
▁nick	-6873
▁pink	-6874
▁wave	-6875
▁wrap	-6876
▁�ʹٰ�	-6877
▁�޴��	-6878
▁Chung	-6879
▁Techn	-6880
▁White	-6881
▁alive	-6882
▁humid	-6883
▁postp	-6884
▁proof	-6885
▁skirt	-6886
▁trial	-6887
▁�1⁄4�	-6888
▁�޼���	-6889
▁advise	-6890
▁bubble	-6891
▁mental	-6892
▁vision	-6893
▁visual	-6894
▁4������	-6895
▁affects	-6896
▁greater	-6897
▁typical	-6898
▁�����޴�	-6899
▁assigned	-6900
▁choosing	-6901
▁facility	-6902
▁handling	-6903
▁listened	-6904
▁moisturi	-6905
▁Christian	-6906
▁relatives	-6907
▁approximately	-6908
OP	-6909
my	-6910
hus	-6911
oor	-6912
uls	-6913
▁Em	-6914
▁�޵	-6915
Take	-6916
apes	-6917
uman	-6918
▁11�	-6919
▁MOU	-6920
▁Med	-6921
▁Sim	-6922
sized	-6923
sters	-6924
uting	-6925
°���?	-6926
▁Cong	-6927
▁Such	-6928
▁perf	-6929
▁scan	-6930
▁sear	-6931
▁���	-6932
Though	-6933
cation	-6934
encies	-6935
ustain	-6936
▁Daegu	-6937
▁chest	-6938
▁liber	-6939
▁stone	-6940
▁�3⁄4	-6941
▁ensure	-6942
▁manner	-6943
▁pencil	-6944
▁pepper	-6945
inations	-6946
▁Spanish	-6947
▁ancient	-6948
▁enhance	-6949
▁grammar	-6950
▁hanging	-6951
▁invited	-6952
▁journey	-6953
▁recover	-6954
▁���׸���	-6955
▁�����̾�	-6956
▁constant	-6957
▁launched	-6958
▁magazine	-6959
▁politics	-6960
▁shoulder	-6961
▁Taekwondo	-6962
▁architect	-6963
▁gradually	-6964
▁household	-6965
▁concerning	-6966
▁innovation	-6967
▁literature	-6968
▁techniques	-6969
-2	-6970
AC	-6971
ǽð	-6972
▁Ʃ	-6973
񿡼�	-6974
isy	-6975
mat	-6976
que	-6977
▁CP	-6978
▁Da	-6979
▁Op	-6980
�̴�	-6981
bage	-6982
cont	-6983
husi	-6984
rows	-6985
sequ	-6986
▁120	-6987
▁Dav	-6988
▁fro	-6989
▁pra	-6990
▁yog	-6991
Based	-6992
cknow	-6993
endor	-6994
lling	-6995
▁2000	-6996
▁Didn	-6997
▁Jang	-6998
▁Star	-6999
▁Turn	-7000
▁acid	-7001
▁soap	-7002
▁stir	-7003
▁�⵵��	-7004
▁River	-7005
▁Trans	-7006
▁inner	-7007
▁screw	-7008
▁���׸�	-7009
▁addict	-7010
▁former	-7011
▁habits	-7012
▁prohib	-7013
▁secure	-7014
▁stated	-7015
▁�����⵵	-7016
�����̶�	-7017
▁Itaewon	-7018
▁climate	-7019
▁enthusi	-7020
▁goodbye	-7021
▁reduced	-7022
▁relieve	-7023
▁winning	-7024
▁���͸���	-7025
��߾���."	-7026
▁European	-7027
▁Olympics	-7028
▁adjusted	-7029
▁distinct	-7030
▁hesitate	-7031
▁organize	-7032
▁umbrella	-7033
▁abilities	-7034
▁authentic	-7035
▁cooperate	-7036
▁described	-7037
▁telephone	-7038
▁quantities	-7039
▁attractions	-7040
▁consumption	-7041
▁disappeared	-7042
▁applications	-7043
Ab	-7044
fu	-7045
ٴٿ	-7046
�	-7047
󿡴�	-7048
hew	-7049
uts	-7050
▁36	-7051
▁GM	-7052
▁�⵶	-7053
."""	-7054
Here	-7055
alle	-7056
teok	-7057
׶���	-7058
▁USD	-7059
▁tip	-7060
craft	-7061
obile	-7062
riger	-7063
▁Braz	-7064
▁bowl	-7065
▁mini	-7066
▁nurs	-7067
▁rise	-7068
▁wise	-7069
▁���⿣	-7070
▁Apple	-7071
▁Osaka	-7072
▁minor	-7073
▁pregn	-7074
▁route	-7075
▁stuck	-7076
▁����	-7077
agement	-7078
▁30����	-7079
▁acknow	-7080
▁assemb	-7081
▁battle	-7082
▁stupid	-7083
▁�׷����	-7084
▁�޶����	-7085
▁���̸�,	-7086
▁100����	-7087
▁5������	-7088
▁Gangnam	-7089
▁Russian	-7090
▁conclud	-7091
▁extract	-7092
▁fingers	-7093
ibilities	-7094
▁absolute	-7095
▁collabor	-7096
▁concerns	-7097
▁instruct	-7098
▁stronger	-7099
��������.	-7100
▁incorrect	-7101
▁neighbors	-7102
▁returning	-7103
▁television	-7104
▁intelligence	-7105
IJ	-7106
Pe	-7107
�	-7108
gue	-7109
ils	-7110
jud	-7111
ris	-7112
▁tu	-7113
▁�鿩	-7114
��޾	-7115
exic	-7116
gged	-7117
▁TOE	-7118
▁cha	-7119
▁vib	-7120
▁�?	-7121
aptop	-7122
cript	-7123
▁Call	-7124
▁Jose	-7125
▁belt	-7126
▁cuis	-7127
▁modu	-7128
▁nutr	-7129
▁�̱��	-7130
▁�߾��	-7131
▁���⹰	-7132
Anyway	-7133
illing	-7134
▁Other	-7135
▁apple	-7136
▁diagn	-7137
▁knife	-7138
▁notes	-7139
▁nutri	-7140
▁overl	-7141
▁shift	-7142
▁spare	-7143
▁strap	-7144
▁weren	-7145
ologies	-7146
▁cotton	-7147
▁coupon	-7148
▁formed	-7149
▁laptop	-7150
▁native	-7151
▁orient	-7152
▁packed	-7153
▁random	-7154
▁sensor	-7155
▁unless	-7156
▁artists	-7157
▁context	-7158
▁experts	-7159
▁harmful	-7160
▁publish	-7161
▁raising	-7162
▁attended	-7163
▁disaster	-7164
▁downtown	-7165
▁soldiers	-7166
▁touching	-7167
��̾�����.	-7168
▁administr	-7169
▁fantastic	-7170
▁purchases	-7171
▁residents	-7172
▁�̱�������	-7173
▁appreciated	-7174
▁specifically	-7175
▁characteristic	-7176
3,	-7177
DS	-7178
RL	-7179
▁ť	-7180
pop	-7181
zer	-7182
▁$2	-7183
▁00	-7184
▁2~	-7185
▁75	-7186
▁Dr	-7187
ette	-7188
kong	-7189
̳׿�.	-7190
▁Bel	-7191
▁Lot	-7192
▁Net	-7193
▁lob	-7194
▁scr	-7195
▁toy	-7196
Could	-7197
anted	-7198
ghter	-7199
igent	-7200
urger	-7201
▁Gold	-7202
▁anti	-7203
▁asks	-7204
▁bond	-7205
▁fuel	-7206
▁root	-7207
▁unex	-7208
advant	-7209
ceived	-7210
▁FedEx	-7211
▁Mexic	-7212
▁Never	-7213
▁entry	-7214
▁fairy	-7215
▁grows	-7216
▁jewel	-7217
▁risks	-7218
▁roast	-7219
▁suits	-7220
▁���̹�	-7221
▁Hawaii	-7222
▁dollar	-7223
▁gotten	-7224
▁pronun	-7225
▁refers	-7226
▁retire	-7227
▁terror	-7228
▁�����	-7229
▁diverse	-7230
▁objects	-7231
▁reports	-7232
▁stretch	-7233
▁sustain	-7234
▁Hongkong	-7235
▁argument	-7236
▁category	-7237
▁headache	-7238
▁interpre	-7239
▁refriger	-7240
▁clearance	-7241
▁everybody	-7242
▁directions	-7243
▁industrial	-7244
▁relatively	-7245
▁thoroughly	-7246
▁composition	-7247
▁effectively	-7248
▁imagination	-7249
▁surrounding	-7250
1.	-7251
OC	-7252
Oh	-7253
Ok	-7254
RP	-7255
ta	-7256
ɾƼ	-7257
ٲٴ	-7258
'."	-7259
ago	-7260
imi	-7261
ups	-7262
▁Ac	-7263
▁BB	-7264
▁El	-7265
▁Mc	-7266
▁ģȯ	-7267
��	-7268
�ʹ�	-7269
eong	-7270
fers	-7271
illy	-7272
mate	-7273
olly	-7274
oman	-7275
▁196	-7276
▁Cha	-7277
▁Has	-7278
▁bak	-7279
▁der	-7280
▁rib	-7281
▁tag	-7282
▁uns	-7283
berry	-7284
irect	-7285
overy	-7286
▁Cour	-7287
▁Port	-7288
▁aunt	-7289
▁clin	-7290
▁issu	-7291
▁mand	-7292
▁soil	-7293
▁worn	-7294
mented	-7295
▁Gwang	-7296
▁clock	-7297
▁grass	-7298
▁index	-7299
▁quote	-7300
▁taxes	-7301
▁wrink	-7302
Without	-7303
ography	-7304
▁2017��	-7305
▁Malays	-7306
▁actors	-7307
▁beings	-7308
▁ignore	-7309
▁noodle	-7310
▁prison	-7311
▁saving	-7312
▁scores	-7313
▁stairs	-7314
▁damages	-7315
▁heading	-7316
▁herself	-7317
▁hobbies	-7318
▁knowing	-7319
▁outdoor	-7320
▁articles	-7321
▁brothers	-7322
▁composed	-7323
▁distingu	-7324
▁officers	-7325
▁relieved	-7326
▁scholars	-7327
▁announced	-7328
▁colleague	-7329
▁collected	-7330
▁disadvant	-7331
▁presented	-7332
▁solutions	-7333
▁associated	-7334
▁enterprise	-7335
▁historical	-7336
▁philosophy	-7337
▁practicing	-7338
▁resolution	-7339
dy	-7340
ks	-7341
car	-7342
ica	-7343
urt	-7344
▁īŻ	-7345
▁�⸣	-7346
��	-7347
racy	-7348
▁Jun	-7349
▁Set	-7350
▁bod	-7351
▁jam	-7352
▁thr	-7353
�޷��	-7354
3����	-7355
abled	-7356
ading	-7357
arest	-7358
isure	-7359
ittee	-7360
▁Last	-7361
▁bare	-7362
▁bene	-7363
▁crew	-7364
▁euro	-7365
▁fest	-7366
▁hamb	-7367
▁icon	-7368
▁purs	-7369
▁vary	-7370
▁�̽��	-7371
engers	-7372
ishing	-7373
▁Beach	-7374
▁hello	-7375
▁ratio	-7376
▁scary	-7377
▁sharp	-7378
▁spect	-7379
▁sushi	-7380
·������	-7381
▁arrest	-7382
▁behalf	-7383
▁cookie	-7384
▁restra	-7385
▁stimul	-7386
▁stored	-7387
▁�߾����	-7388
▁Michael	-7389
▁billion	-7390
▁catalog	-7391
▁elastic	-7392
▁grilled	-7393
▁matches	-7394
▁session	-7395
▁sincere	-7396
Regarding	-7397
▁carrying	-7398
▁textbook	-7399
▁urgently	-7400
▁���̳���?	-7401
▁confusion	-7402
▁corrected	-7403
▁furniture	-7404
▁therefore	-7405
Furthermore	-7406
▁connecting	-7407
▁specialized	-7408
▁expectations	-7409
▁pronunciation	-7410
TM	-7411
edy	-7412
fit	-7413
ٴيٴ	-7414
▁AM	-7415
▁ax	-7416
▁ep	-7417
Have	-7418
iger	-7419
iner	-7420
lets	-7421
▁Bit	-7422
▁Nam	-7423
▁ham	-7424
▁row	-7425
▁shy	-7426
▁�ʼ�	-7427
▁�˱�	-7428
▁�̶�	-7429
acter	-7430
anges	-7431
ivals	-7432
lfare	-7433
osity	-7434
▁25��	-7435
▁Choi	-7436
▁Play	-7437
▁arts	-7438
▁leaf	-7439
▁leak	-7440
▁rely	-7441
▁thro	-7442
���̴�	-7443
People	-7444
ansion	-7445
ieving	-7446
ulture	-7447
▁James	-7448
▁curve	-7449
▁mouse	-7450
▁storm	-7451
▁tasty	-7452
▁trick	-7453
▁���߾�	-7454
▁Brazil	-7455
▁Disney	-7456
▁cigare	-7457
▁circle	-7458
▁compat	-7459
▁diplom	-7460
▁guidel	-7461
▁narrow	-7462
▁nobody	-7463
▁phrase	-7464
▁sleepy	-7465
▁transm	-7466
▁verify	-7467
▁�����̵	-7468
▁anxious	-7469
▁dealing	-7470
▁reminds	-7471
▁touched	-7472
▁welfare	-7473
▁�3⁄4��	-7474
▁focusing	-7475
▁intended	-7476
▁offering	-7477
▁proposed	-7478
▁symptoms	-7479
▁violence	-7480
▁attendant	-7481
▁defective	-7482
▁objective	-7483
▁acceptable	-7484
▁businesses	-7485
▁complaints	-7486
▁definition	-7487
▁instrument	-7488
▁institution	-7489
▁partnership	-7490
▁smartphones	-7491
DA	-7492
cal	-7493
̶��	-7494
▁DV	-7495
▁PR	-7496
Comp	-7497
case	-7498
cest	-7499
elly	-7500
lace	-7501
nels	-7502
▁Chi	-7503
▁Edu	-7504
▁Inc	-7505
▁Sky	-7506
▁awa	-7507
▁fry	-7508
▁pil	-7509
▁�򰡸�	-7510
2����	-7511
bokki	-7512
force	-7513
ograp	-7514
rical	-7515
▁""��	-7516
▁Hang	-7517
▁Love	-7518
▁edge	-7519
▁rein	-7520
▁surf	-7521
▁tong	-7522
▁vert	-7523
▁���̸	-7524
▁���	-7525
Unlike	-7526
market	-7527
▁After	-7528
▁accum	-7529
▁angle	-7530
▁beans	-7531
▁deals	-7532
▁essay	-7533
▁facts	-7534
▁moves	-7535
▁shame	-7536
▁signs	-7537
▁steel	-7538
▁tears	-7539
▁tells	-7540
▁�3⁄4�	-7541
▁���̻�	-7542
��̾���	-7543
▁Turkey	-7544
▁anyway	-7545
▁fourth	-7546
▁gender	-7547
▁lawyer	-7548
▁prompt	-7549
▁tissue	-7550
▁tomato	-7551
▁�����̹	-7552
▁absence	-7553
▁bottles	-7554
▁defined	-7555
▁delight	-7556
▁disturb	-7557
▁joining	-7558
▁leisure	-7559
▁letting	-7560
▁rapidly	-7561
▁refused	-7562
▁�޼�����	-7563
▁���󿡼���	-7564
ustration	-7565
▁controll	-7566
▁evaluate	-7567
▁forecast	-7568
▁ordering	-7569
▁searched	-7570
▁technique	-7571
▁influenced	-7572
▁positively	-7573
▁unexpected	-7574
2-	-7575
شٴ	-7576
▁u	-7577
aid	-7578
ano	-7579
bre	-7580
eds	-7581
ios	-7582
ٰ�,	-7583
▁4.	-7584
▁Na	-7585
▁PP	-7586
▁SK	-7587
▁UN	-7588
Over	-7589
hour	-7590
icip	-7591
outs	-7592
part	-7593
▁Hol	-7594
▁eco	-7595
▁pic	-7596
▁ͅ��	-7597
���̳	-7598
chers	-7599
ieves	-7600
lobal	-7601
oween	-7602
yment	-7603
▁apps	-7604
▁boys	-7605
▁kick	-7606
▁poly	-7607
▁tape	-7608
▁toys	-7609
▁wild	-7610
▁���	-7611
���͸�	-7612
icious	-7613
▁5,000	-7614
▁First	-7615
▁Happy	-7616
▁Until	-7617
▁cloth	-7618
▁coord	-7619
▁drank	-7620
▁drawn	-7621
▁genre	-7622
▁oblig	-7623
▁param	-7624
▁prett	-7625
▁waves	-7626
����̶�	-7627
����̼�	-7628
reprene	-7629
▁Winter	-7630
▁casual	-7631
▁output	-7632
▁refres	-7633
▁strugg	-7634
▁temple	-7635
ferences	-7636
▁injured	-7637
▁precise	-7638
▁privacy	-7639
▁revenue	-7640
▁warming	-7641
Sometimes	-7642
formation	-7643
▁Business	-7644
▁elevator	-7645
▁nickname	-7646
▁patterns	-7647
▁resource	-7648
▁surprise	-7649
▁�����̴�.	-7650
▁�����̸�,	-7651
▁Halloween	-7652
▁attaching	-7653
▁continues	-7654
▁copyright	-7655
▁emotional	-7656
▁movements	-7657
▁reflected	-7658
▁schedules	-7659
▁worldwide	-7660
�����̿���.	-7661
▁attendance	-7662
▁identified	-7663
▁�����̳���?	-7664
▁comfortably	-7665
▁expressions	-7666
▁advertisements	-7667
24	-7668
ǰų	-7669
▁¦	-7670
ham	-7671
nal	-7672
vis	-7673
▁4,	-7674
cipe	-7675
iety	-7676
roid	-7677
what	-7678
▁Law	-7679
▁hip	-7680
▁tie	-7681
�⿡��	-7682
Third	-7683
arian	-7684
ciple	-7685
ctors	-7686
emplo	-7687
isher	-7688
kward	-7689
outer	-7690
rehen	-7691
wards	-7692
▁Budd	-7693
▁Sang	-7694
▁Talk	-7695
▁acts	-7696
▁buff	-7697
▁bull	-7698
▁diam	-7699
▁diss	-7700
▁ears	-7701
▁eleg	-7702
▁lend	-7703
▁lips	-7704
▁mort	-7705
▁rush	-7706
▁�˾�.	-7707
▁���°	-7708
�׷���	-7709
Fortun	-7710
araoke	-7711
estyle	-7712
▁Exper	-7713
▁Tower	-7714
▁adequ	-7715
▁amend	-7716
▁brush	-7717
▁exams	-7718
▁horiz	-7719
▁react	-7720
▁sizes	-7721
▁spons	-7722
▁¥����	-7723
▁���󸶸�	-7724
Despite	-7725
athemat	-7726
working	-7727
▁Friend	-7728
▁ancest	-7729
▁breath	-7730
▁criter	-7731
▁dating	-7732
▁escape	-7733
▁heaven	-7734
▁indeed	-7735
▁insert	-7736
▁severe	-7737
▁stream	-7738
▁studio	-7739
▁vendor	-7740
▁wishes	-7741
▁�޶���.	-7742
▁chapter	-7743
▁closely	-7744
▁closing	-7745
▁figures	-7746
▁nearest	-7747
▁possess	-7748
▁raining	-7749
▁satisfy	-7750
▁settled	-7751
▁speaker	-7752
▁therapy	-7753
�������?	-7754
▁""������	-7755
▁combined	-7756
▁commonly	-7757
▁identity	-7758
▁replaced	-7759
▁sightsee	-7760
▁�����⿡��	-7761
▁classical	-7762
▁festivals	-7763
▁teenagers	-7764
▁�����̿���	-7765
▁accurately	-7766
▁passengers	-7767
▁punishment	-7768
▁requesting	-7769
▁resistance	-7770
▁fundamental	-7771
67	-7772
DP	-7773
�'	-7774
aya	-7775
▁EU	-7776
▁Ju	-7777
▁UI	-7778
Most	-7779
bing	-7780
coin	-7781
otic	-7782
phew	-7783
▁197	-7784
▁250	-7785
▁MOQ	-7786
▁Mom	-7787
▁Que	-7788
▁Reg	-7789
▁gro	-7790
▁pin	-7791
ifies	-7792
rated	-7793
▁From	-7794
▁Jong	-7795
▁Mary	-7796
▁cock	-7797
▁coin	-7798
▁gall	-7799
▁kiss	-7800
▁lamp	-7801
▁soph	-7802
▁symp	-7803
elcome	-7804
lessly	-7805
▁Enjoy	-7806
▁Great	-7807
▁House	-7808
▁asset	-7809
▁bride	-7810
▁chief	-7811
▁irrit	-7812
▁persu	-7813
▁����	-7814
ication	-7815
jection	-7816
▁2014��	-7817
▁Office	-7818
▁cherry	-7819
▁dramas	-7820
▁ending	-7821
▁excuse	-7822
▁kimchi	-7823
▁nephew	-7824
▁recipe	-7825
▁referr	-7826
▁scenes	-7827
▁styles	-7828
�����̰�	-7829
ographer	-7830
▁anybody	-7831
▁awkward	-7832
▁cookies	-7833
▁couples	-7834
▁crucial	-7835
▁examine	-7836
▁exposed	-7837
▁regards	-7838
▁shortly	-7839
▁vitamin	-7840
▁witness	-7841
▁managers	-7842
▁potatoes	-7843
▁princess	-7844
▁refunded	-7845
▁sometime	-7846
▁supplies	-7847
▁Americans	-7848
▁invention	-7849
▁practiced	-7850
▁workplace	-7851
▁�������.	-7852
ratulations	-7853
▁completion	-7854
▁exercising	-7855
Additionally	-7856
▁alternative	-7857
0.	-7858
14	-7859
18	-7860
,	-7861
200	-7862
cho	-7863
gon	-7864
lor	-7865
ops	-7866
pot	-7867
rad	-7868
▁$3	-7869
▁2-	-7870
▁Lu	-7871
▁�˹	-7872
agon	-7873
cuss	-7874
eper	-7875
erry	-7876
gypt	-7877
▁50%	-7878
▁Fil	-7879
▁Hae	-7880
▁Hel	-7881
▁dum	-7882
▁van	-7883
while	-7884
▁"�̹�	-7885
▁Thai	-7886
▁Yong	-7887
▁Zeal	-7888
▁tail	-7889
▁�̼��	-7890
▁�⸣��	-7891
▁���	-7892
angers	-7893
cerity	-7894
parent	-7895
rowave	-7896
▁"��°,	-7897
▁Black	-7898
▁Egypt	-7899
▁aband	-7900
▁innoc	-7901
▁merch	-7902
▁patch	-7903
▁rainy	-7904
▁semin	-7905
▁views	-7906
▁�޾���	-7907
▁��·��	-7908
eration	-7909
inating	-7910
ression	-7911
▁extent	-7912
▁facing	-7913
▁hotels	-7914
▁meters	-7915
▁plenty	-7916
▁poster	-7917
▁silver	-7918
▁waited	-7919
▁widely	-7920
▁�׷��ٰ�	-7921
▁�߿����	-7922
▁'������	-7923
▁Zealand	-7924
▁analyze	-7925
▁capture	-7926
▁forgive	-7927
▁fortune	-7928
▁virtual	-7929
▁÷������	-7930
▁�̵�����	-7931
▁���̾�."	-7932
▁charging	-7933
▁charming	-7934
▁numerous	-7935
▁occasion	-7936
▁upcoming	-7937
▁automatic	-7938
▁behaviors	-7939
▁dormitory	-7940
▁personnel	-7941
▁sincerity	-7942
▁assignments	-7943
▁embarrassed	-7944
▁instruction	-7945
▁introducing	-7946
▁broadcasting	-7947
▁corresponding	-7948
ŸƮ	-7949
ưư	-7950
ƽô	-7951
ado	-7952
ald	-7953
rab	-7954
spe	-7955
tes	-7956
·�,	-7957
▁34	-7958
▁xx	-7959
��°	-7960
abet	-7961
abil	-7962
evit	-7963
grad	-7964
rary	-7965
unar	-7966
▁Gre	-7967
▁ast	-7968
▁avo	-7969
▁mut	-7970
▁�󸶸�	-7971
Event	-7972
Would	-7973
apped	-7974
point	-7975
shirt	-7976
▁Fore	-7977
▁Hope	-7978
▁bean	-7979
▁dial	-7980
▁fake	-7981
▁fasc	-7982
▁lift	-7983
▁rare	-7984
▁roof	-7985
▁unav	-7986
▁��¡�	-7987
ffered	-7988
hether	-7989
▁Grand	-7990
▁birds	-7991
▁cabin	-7992
▁enemy	-7993
▁recip	-7994
▁shoot	-7995
▁stops	-7996
����̳�	-7997
ception	-7998
ibimbap	-7999
▁Museum	-8000
▁assume	-8001
▁inevit	-8002
▁pounds	-8003
▁revise	-8004
▁sector	-8005
▁states	-8006
▁tongue	-8007
▁Control	-8008
▁briefly	-8009
▁ignored	-8010
▁neither	-8011
▁painful	-8012
▁penalty	-8013
▁survive	-8014
▁�߻��߽��	-8015
▁�����鿡�	-8016
��̿���."	-8017
▁Republic	-8018
▁acquired	-8019
▁creation	-8020
▁promises	-8021
▁rejected	-8022
�������."	-8023
▁Yesterday	-8024
▁expansion	-8025
▁expecting	-8026
▁microwave	-8027
▁nutrients	-8028
▁principle	-8029
▁protected	-8030
Fortunately	-8031
▁Australian	-8032
▁frustrated	-8033
▁challenging	-8034
▁outstanding	-8035
▁scholarship	-8036
▁institutions	-8037
▁reservations	-8038
▁specification	-8039
▁specifications	-8040
1,	-8041
ID	-8042
ml	-8043
wr	-8044
ɷȾ	-8045
ٲپ	-8046
򰡿�	-8047
lam	-8048
law	-8049
omb	-8050
oop	-8051
ori	-8052
▁48	-8053
▁CN	-8054
▁Ha	-8055
▁ȣȯ	-8056
▁�˶	-8057
��	-8058
Many	-8059
alse	-8060
oons	-8061
race	-8062
tail	-8063
tery	-8064
umes	-8065
▁2.5	-8066
▁Del	-8067
▁Gal	-8068
▁Mad	-8069
▁San	-8070
▁emp	-8071
▁fle	-8072
▁nap	-8073
▁tun	-8074
earch	-8075
oming	-8076
table	-8077
▁2���	-8078
▁40��	-8079
▁List	-8080
▁Read	-8081
▁Rome	-8082
▁Sung	-8083
▁butt	-8084
▁caut	-8085
▁drew	-8086
▁genu	-8087
▁lect	-8088
▁mild	-8089
▁pets	-8090
▁pour	-8091
▁vote	-8092
▁�ٰ�.	-8093
▁���⸸	-8094
���ʹ�	-8095
iverse	-8096
▁Being	-8097
▁Chang	-8098
▁David	-8099
▁admit	-8100
▁cycle	-8101
▁dough	-8102
▁dynam	-8103
▁faces	-8104
▁spoke	-8105
▁trips	-8106
▁Jeonju	-8107
▁Palace	-8108
▁blocks	-8109
▁boiled	-8110
▁commit	-8111
▁golden	-8112
▁guitar	-8113
▁hiking	-8114
▁nearly	-8115
▁rabbit	-8116
▁rental	-8117
▁�����ʽ	-8118
▁chances	-8119
▁closest	-8120
▁harmony	-8121
▁heavily	-8122
▁jewelry	-8123
▁manners	-8124
▁primary	-8125
▁protein	-8126
▁resolve	-8127
▁sisters	-8128
▁�ʼ�����	-8129
▁�޾�����	-8130
▁���׷��̵	-8131
▁�����ʿ�	-8132
▁�𸣰�����	-8133
▁athletes	-8134
▁breaking	-8135
▁diseases	-8136
▁election	-8137
▁admission	-8138
▁extension	-8139
▁forgotten	-8140
▁mountains	-8141
▁���̷�����	-8142
▁categories	-8143
▁membership	-8144
▁differently	-8145
▁negotiation	-8146
▁sightseeing	-8147
▁refrigerator	-8148
▁transactions	-8149
MR	-8150
Up	-8151
ya	-8152
Kim	-8153
asp	-8154
des	-8155
log	-8156
▁RM	-8157
▁om	-8158
▁ưư	-8159
born	-8160
heon	-8161
isms	-8162
lass	-8163
site	-8164
°��,	-8165
▁Rec	-8166
▁hun	-8167
▁hyd	-8168
▁ske	-8169
▁��	-8170
���߾	-8171
Still	-8172
▁"�̷�	-8173
▁"�׷�	-8174
▁With	-8175
▁Yoon	-8176
▁boil	-8177
▁loan	-8178
▁sole	-8179
▁unre	-8180
▁�޼��	-8181
����̼	-8182
▁Harry	-8183
▁Since	-8184
▁Tteok	-8185
▁dumpl	-8186
▁euros	-8187
▁opens	-8188
▁stood	-8189
▁tower	-8190
▁�԰���	-8191
��̼���	-8192
��̿���	-8193
atching	-8194
iculous	-8195
ittance	-8196
oration	-8197
▁Middle	-8198
▁appeal	-8199
▁bodies	-8200
▁desert	-8201
▁duties	-8202
▁earned	-8203
▁forced	-8204
▁hospit	-8205
▁incred	-8206
▁loaded	-8207
▁planet	-8208
▁speaks	-8209
▁stocks	-8210
▁���̵��	-8211
▁Product	-8212
▁cuisine	-8213
▁divorce	-8214
▁genuine	-8215
▁happier	-8216
▁proport	-8217
▁relaxed	-8218
▁serving	-8219
▁shocked	-8220
▁���̳���	-8221
▁Mountain	-8222
▁annoying	-8223
▁boarding	-8224
▁channels	-8225
▁contrast	-8226
▁suffered	-8227
▁�����̽��	-8228
Eventually	-8229
▁Education	-8230
▁conscious	-8231
▁reduction	-8232
▁specialty	-8233
▁contribute	-8234
▁scientific	-8235
▁notification	-8236
▁investigation	-8237
8.	-8238
EC	-8239
EN	-8240
ON	-8241
bi	-8242
gi	-8243
ɷȽ	-8244
ɽð	-8245
̰ų	-8246
Bay	-8247
alt	-8248
dae	-8249
ran	-8250
zen	-8251
▁7.	-8252
▁La	-8253
▁ͅ並	-8254
▁�°	-8255
▁�˵	-8256
�̱�	-8257
�׷�	-8258
anta	-8259
list	-8260
rise	-8261
sect	-8262
well	-8263
wing	-8264
▁Ask	-8265
▁Dan	-8266
▁Ken	-8267
▁PDF	-8268
▁Spr	-8269
▁URL	-8270
▁fed	-8271
▁�޽�	-8272
heart	-8273
store	-8274
urban	-8275
xygen	-8276
▁Cons	-8277
▁Feel	-8278
▁Line	-8279
▁chip	-8280
▁clar	-8281
▁cups	-8282
▁idol	-8283
▁obst	-8284
▁sequ	-8285
▁shad	-8286
▁slic	-8287
▁thus	-8288
▁unus	-8289
▁wore	-8290
���̾�	-8291
fessor	-8292
inseng	-8293
leting	-8294
ukbang	-8295
▁Store	-8296
▁circu	-8297
▁cried	-8298
▁drove	-8299
▁grace	-8300
▁marks	-8301
▁parag	-8302
▁posts	-8303
▁recyc	-8304
▁towel	-8305
▁�;�."	-8306
ificial	-8307
unction	-8308
▁Street	-8309
▁campus	-8310
▁caring	-8311
▁domain	-8312
▁murder	-8313
▁passes	-8314
▁sexual	-8315
▁spaces	-8316
▁sunset	-8317
▁topics	-8318
▁÷�����	-8319
▁�׷���,	-8320
▁�����÷	-8321
appiness	-8322
ollywood	-8323
together	-8324
▁Central	-8325
▁Develop	-8326
▁heating	-8327
▁justice	-8328
▁nations	-8329
▁regions	-8330
▁seminar	-8331
▁trained	-8332
▁���߾���	-8333
▁analyzed	-8334
▁cosmetic	-8335
▁criteria	-8336
▁peaceful	-8337
▁somewhat	-8338
▁sunlight	-8339
▁weekdays	-8340
▁�����ٰ�.	-8341
▁democracy	-8342
▁evaluated	-8343
▁existence	-8344
▁landscape	-8345
▁���̵�����	-8346
▁attraction	-8347
▁calculated	-8348
▁comparison	-8349
▁discussing	-8350
▁remittance	-8351
▁independence	-8352
▁entertainment	-8353
6.	-8354
Go	-8355
Us	-8356
au	-8357
oe	-8358
rm	-8359
Ǹs	-8360
׼�	-8361
bow	-8362
fol	-8363
ila	-8364
ini	-8365
▁1/	-8366
▁55	-8367
▁Av	-8368
▁FC	-8369
▁IR	-8370
▁ly	-8371
ella	-8372
irts	-8373
itto	-8374
olen	-8375
▁DNA	-8376
▁Jae	-8377
▁spr	-8378
▁tap	-8379
▁�̾�	-8380
1����	-8381
agree	-8382
istan	-8383
rooms	-8384
style	-8385
young	-8386
▁1000	-8387
▁Chic	-8388
▁More	-8389
▁Were	-8390
▁bite	-8391
▁debt	-8392
▁grat	-8393
▁lake	-8394
▁noon	-8395
▁rose	-8396
▁shoe	-8397
▁subt	-8398
▁wond	-8399
▁�¶��	-8400
ashimi	-8401
reness	-8402
▁Court	-8403
▁Smith	-8404
▁banks	-8405
▁harsh	-8406
▁rains	-8407
▁virus	-8408
▁waist	-8409
�����̾	-8410
issions	-8411
▁elimin	-8412
▁faulty	-8413
▁forces	-8414
▁gently	-8415
▁hearts	-8416
▁indoor	-8417
▁locked	-8418
▁luxury	-8419
▁throat	-8420
▁trends	-8421
▁unfair	-8422
▁weekly	-8423
▁�˷����	-8424
▁�����	-8425
▁100,000	-8426
▁alright	-8427
▁cleaned	-8428
▁colored	-8429
▁fastest	-8430
▁illness	-8431
▁instant	-8432
▁perfume	-8433
▁steamed	-8434
▁tuition	-8435
▁violent	-8436
▁��¥����	-8437
▁Describe	-8438
▁assemble	-8439
▁blossoms	-8440
▁bringing	-8441
▁majority	-8442
▁mathemat	-8443
▁wherever	-8444
▁candidate	-8445
▁decreased	-8446
▁displayed	-8447
▁lifestyle	-8448
▁recording	-8449
▁strategic	-8450
▁strengths	-8451
▁�������ʹ�	-8452
▁absolutely	-8453
▁creativity	-8454
▁entreprene	-8455
▁expressing	-8456
▁motivation	-8457
▁revolution	-8458
▁statements	-8459
▁celebrities	-8460
▁immigration	-8461
▁performances	-8462
28	-8463
Hi	-8464
OM	-8465
޷�	-8466
ami	-8467
emb	-8468
oph	-8469
yun	-8470
▁ES	-8471
▁ur	-8472
��̴	-8473
Only	-8474
aste	-8475
athy	-8476
etch	-8477
fish	-8478
rain	-8479
ulum	-8480
wear	-8481
▁600	-8482
▁Cap	-8483
▁Jim	-8484
▁Squ	-8485
▁dye	-8486
▁�⿩�	-8487
�'��	-8488
���	-8489
inite	-8490
print	-8491
undai	-8492
utive	-8493
water	-8494
▁Bang	-8495
▁Tour	-8496
▁calc	-8497
▁dent	-8498
▁grab	-8499
▁grav	-8500
▁lazy	-8501
▁�鿡��	-8502
▁���	-8503
▁���±	-8504
arious	-8505
liness	-8506
▁Games	-8507
▁Water	-8508
▁bills	-8509
▁dying	-8510
▁menus	-8511
▁royal	-8512
▁shell	-8513
▁shrim	-8514
▁south	-8515
▁wears	-8516
����?"	-8517
▁bakery	-8518
▁define	-8519
▁fluent	-8520
▁oxygen	-8521
▁serves	-8522
▁stolen	-8523
��̾���.	-8524
▁consequ	-8525
▁garbage	-8526
▁premium	-8527
▁selfish	-8528
▁victims	-8529
▁�߾�����	-8530
▁��̵���	-8531
▁�����°�	-8532
▁10������	-8533
▁Electron	-8534
▁Malaysia	-8535
▁disabled	-8536
▁lectures	-8537
▁managing	-8538
▁produces	-8539
▁talented	-8540
▁websites	-8541
▁animation	-8542
▁answering	-8543
▁assistant	-8544
▁designing	-8545
▁immediate	-8546
▁mandatory	-8547
▁thousands	-8548
▁tradition	-8549
▁beforehand	-8550
▁compliment	-8551
▁functional	-8552
▁industries	-8553
▁approaching	-8554
▁maintaining	-8555
▁measurement	-8556
▁inconvenient	-8557
▁technologies	-8558
5,	-8559
aj	-8560
ƮǪ	-8561
�	-8562
cut	-8563
eks	-8564
gor	-8565
ogi	-8566
▁3-	-8567
▁Id	-8568
▁UV	-8569
▁�򰡵	-8570
ango	-8571
atin	-8572
jong	-8573
suit	-8574
ulpt	-8575
▁"�׸	-8576
▁'��	-8577
▁25�	-8578
▁Aut	-8579
▁Fig	-8580
▁Nob	-8581
▁Val	-8582
▁cin	-8583
▁rhy	-8584
akers	-8585
ancer	-8586
class	-8587
duces	-8588
level	-8589
▁19��	-8590
▁Blue	-8591
▁Life	-8592
▁Paul	-8593
▁Rock	-8594
▁Supp	-8595
▁bulk	-8596
▁mill	-8597
▁poem	-8598
▁skip	-8599
▁whis	-8600
ellect	-8601
▁Lotte	-8602
▁Trump	-8603
▁badly	-8604
▁belly	-8605
▁fragr	-8606
▁maxim	-8607
▁meets	-8608
▁plain	-8609
▁sandw	-8610
▁shock	-8611
▁stays	-8612
▁toast	-8613
▁����	-8614
����̵�	-8615
▁15����	-8616
▁20,000	-8617
▁behave	-8618
▁fridge	-8619
▁inches	-8620
▁joyful	-8621
▁picnic	-8622
▁signal	-8623
▁stands	-8624
▁6������	-8625
▁Android	-8626
▁Hyundai	-8627
▁Service	-8628
▁capable	-8629
▁classic	-8630
▁costume	-8631
▁defense	-8632
▁elegant	-8633
▁equally	-8634
▁involve	-8635
▁propose	-8636
▁sadness	-8637
▁signing	-8638
▁trading	-8639
▁unknown	-8640
▁�����?	-8641
▁���̷���	-8642
▁����'��	-8643
▁climbing	-8644
▁disagree	-8645
▁football	-8646
▁imported	-8647
▁judgment	-8648
▁necklace	-8649
▁prevents	-8650
▁vertical	-8651
▁�׷�����.	-8652
▁���3⁄4�.	-8653
▁accidents	-8654
▁allowance	-8655
▁committed	-8656
▁committee	-8657
▁enjoyable	-8658
▁gathering	-8659
▁substance	-8660
▁assistance	-8661
▁discovered	-8662
▁operations	-8663
▁prohibited	-8664
▁statistics	-8665
▁���������̾	-8666
▁corporation	-8667
▁interpreter	-8668
▁replacement	-8669
▁photographer	-8670
▁recommendation	-8671
Me	-8672
OR	-8673
˰�	-8674
Ϻδ	-8675
ٻڰ	-8676
App	-8677
ria	-8678
▁32	-8679
▁38	-8680
▁Cr	-8681
▁Of	-8682
▁SS	-8683
▁Us	-8684
▁́μ	-8685
▁�⿡	-8686
�""	-8687
��鿡	-8688
assy	-8689
gain	-8690
isco	-8691
rome	-8692
▁Hen	-8693
▁Men	-8694
▁Ser	-8695
▁Ven	-8696
▁bon	-8697
▁�¿�	-8698
▁�̳�	-8699
���˴	-8700
Never	-8701
Right	-8702
ander	-8703
chang	-8704
comes	-8705
etime	-8706
icide	-8707
iders	-8708
ijing	-8709
myeon	-8710
ontin	-8711
plain	-8712
reens	-8713
▁'���	-8714
▁Anna	-8715
▁Hyun	-8716
▁coke	-8717
▁eBay	-8718
▁envy	-8719
▁flaw	-8720
▁hook	-8721
▁nine	-8722
▁sees	-8723
▁tips	-8724
▁writ	-8725
arters	-8726
▁angel	-8727
▁anger	-8728
▁films	-8729
▁multi	-8730
▁reput	-8731
▁robot	-8732
▁scold	-8733
▁shout	-8734
▁11����	-8735
▁Global	-8736
▁crisis	-8737
▁estate	-8738
▁fallen	-8739
▁franch	-8740
▁junior	-8741
▁lovers	-8742
▁perman	-8743
▁ranked	-8744
▁rarely	-8745
▁relief	-8746
▁sculpt	-8747
▁winner	-8748
▁Chicago	-8749
▁Perhaps	-8750
▁anxiety	-8751
▁deserve	-8752
▁dischar	-8753
▁eternal	-8754
▁fulfill	-8755
▁pressed	-8756
▁resting	-8757
▁summary	-8758
▁weapons	-8759
▁western	-8760
▁beverage	-8761
▁colorful	-8762
▁district	-8763
▁generous	-8764
▁happiest	-8765
▁mistaken	-8766
▁operated	-8767
▁pregnant	-8768
▁regional	-8769
▁revealed	-8770
▁troubles	-8771
▁basically	-8772
▁certified	-8773
▁comprehen	-8774
▁contained	-8775
▁decorated	-8776
▁excessive	-8777
▁specified	-8778
▁���̺�����	-8779
▁customized	-8780
▁supplement	-8781
▁surprising	-8782
▁�����̱���.	-8783
▁�������߽��	-8784
▁distributed	-8785
▁instruments	-8786
▁consultation	-8787
▁conversations	-8788
▁organizational	-8789
AM	-8790
OB	-8791
nb	-8792
rs	-8793
azz	-8794
enz	-8795
opy	-8796
ora	-8797
oty	-8798
rie	-8799
׿�,	-8800
▁IC	-8801
▁ug	-8802
Okay	-8803
cers	-8804
dern	-8805
eras	-8806
ilty	-8807
itis	-8808
oses	-8809
othe	-8810
weet	-8811
▁Jul	-8812
▁Pat	-8813
▁Sub	-8814
▁Sum	-8815
▁ash	-8816
▁pit	-8817
▁�߽�	-8818
0����	-8819
ament	-8820
fried	-8821
hetic	-8822
▁3���	-8823
▁Book	-8824
▁Kang	-8825
▁Mong	-8826
▁Moon	-8827
▁adap	-8828
▁beds	-8829
▁cler	-8830
▁edit	-8831
▁gear	-8832
▁puri	-8833
▁shel	-8834
▁tank	-8835
▁west	-8836
▁́�."	-8837
▁�̹��	-8838
▁���ʹ	-8839
��̰�,	-8840
▁10���	-8841
▁2,000	-8842
▁Human	-8843
▁Kevin	-8844
▁TOEIC	-8845
▁begun	-8846
▁breed	-8847
▁chips	-8848
▁cruel	-8849
▁dried	-8850
▁false	-8851
▁finds	-8852
▁firms	-8853
▁gorge	-8854
▁humor	-8855
▁minds	-8856
▁outer	-8857
▁reset	-8858
▁vocab	-8859
▁width	-8860
▁�ʺ���	-8861
▁�˼���	-8862
▁��÷��	-8863
����ٰ�	-8864
fection	-8865
▁Flitto	-8866
▁Joseon	-8867
▁Mother	-8868
▁admire	-8869
▁attrib	-8870
▁checks	-8871
▁convey	-8872
▁emails	-8873
▁hoping	-8874
▁pursue	-8875
▁strike	-8876
▁triang	-8877
▁Beijing	-8878
▁Twitter	-8879
▁centers	-8880
▁cleaner	-8881
▁conserv	-8882
▁default	-8883
▁dreamed	-8884
▁elderly	-8885
▁enables	-8886
▁endless	-8887
▁focuses	-8888
▁illustr	-8889
▁loading	-8890
▁unusual	-8891
������."	-8892
abilities	-8893
▁absorbed	-8894
▁entirely	-8895
▁extended	-8896
▁instance	-8897
▁observed	-8898
▁obtained	-8899
▁reflects	-8900
▁supplied	-8901
▁terminal	-8902
▁Therefore	-8903
▁afterward	-8904
▁deposited	-8905
▁indicates	-8906
▁paragraph	-8907
▁reception	-8908
▁thickness	-8909
▁���̼�����	-8910
▁adjustment	-8911
▁artificial	-8912
▁collecting	-8913
▁containing	-8914
▁graduating	-8915
▁innovative	-8916
▁properties	-8917
▁���׷��̵���	-8918
▁calculation	-8919
▁governments	-8920
▁underground	-8921
▁announcement	-8922
▁modification	-8923
▁surroundings	-8924
▁verification	-8925
17	-8926
LC	-8927
TV	-8928
_�	-8929
̱⵵	-8930
Ϻη	-8931
Ϻθ	-8932
His	-8933
Why	-8934
aki	-8935
bnb	-8936
oos	-8937
pan	-8938
woo	-8939
▁1~	-8940
▁KC	-8941
▁SM	-8942
▁Wi	-8943
atis	-8944
enda	-8945
iate	-8946
itud	-8947
moon	-8948
odel	-8949
ucks	-8950
▁"20	-8951
▁Big	-8952
▁EXO	-8953
▁Nor	-8954
▁Pur	-8955
▁boo	-8956
▁iOS	-8957
▁nav	-8958
▁nom	-8959
▁sir	-8960
▁wis	-8961
▁�ʾ	-8962
▁�޹�	-8963
Korea	-8964
Until	-8965
aired	-8966
eters	-8967
inity	-8968
inton	-8969
losed	-8970
osure	-8971
rogen	-8972
undae	-8973
▁Stop	-8974
▁Test	-8975
▁arom	-8976
▁clip	-8977
▁curi	-8978
▁jeal	-8979
▁joke	-8980
▁tuna	-8981
▁�׿��	-8982
�""��	-8983
00����	-8984
avored	-8985
ficial	-8986
rovers	-8987
terior	-8988
▁Doesn	-8989
▁Gener	-8990
▁Hanok	-8991
▁Peter	-8992
▁Place	-8993
▁State	-8994
▁aging	-8995
▁agric	-8996
▁appet	-8997
▁crack	-8998
▁craft	-8999
▁drugs	-9000
▁fancy	-9001
▁fired	-9002
▁incur	-9003
▁loyal	-9004
▁noisy	-9005
▁pharm	-9006
▁solar	-9007
▁split	-9008
▁therm	-9009
▁toler	-9010
▁urban	-9011
▁wrist	-9012
����.	-9013
amiliar	-9014
riculum	-9015
▁Choose	-9016
▁claims	-9017
▁dental	-9018
▁facial	-9019
▁licens	-9020
▁lowest	-9021
▁snowed	-9022
▁stages	-9023
�߾���."	-9024
▁Bitcoin	-9025
▁Friends	-9026
▁affairs	-9027
▁applies	-9028
▁cameras	-9029
▁causing	-9030
▁diction	-9031
▁ethical	-9032
▁handled	-9033
▁jealous	-9034
▁leather	-9035
▁organic	-9036
▁posting	-9037
▁printer	-9038
▁screens	-9039
▁solving	-9040
▁victory	-9041
▁warrant	-9042
▁���׵���	-9043
▁basement	-9044
▁gorgeous	-9045
▁horizont	-9046
▁inspired	-9047
▁possibly	-9048
▁recovery	-9049
▁referred	-9050
▁reliable	-9051
▁resemble	-9052
▁shocking	-9053
▁universe	-9054
▁Hollywood	-9055
▁awareness	-9056
▁generated	-9057
▁highlight	-9058
▁referring	-9059
▁�׸�������	-9060
▁���̿�����	-9061
▁���߿�����	-9062
▁Especially	-9063
▁consistent	-9064
▁controlled	-9065
▁controvers	-9066
▁convention	-9067
▁guesthouse	-9068
▁installing	-9069
▁internship	-9070
▁submission	-9071
▁accordingly	-9072
▁arrangement	-9073
▁association	-9074
▁misunderstand	-9075
OL	-9076
Or	-9077
SA	-9078
fa	-9079
no	-9080
˸�	-9081
,""	-9082
Tom	-9083
asm	-9084
han	-9085
lar	-9086
▁5,	-9087
▁AC	-9088
▁HD	-9089
��⵵	-9090
aker	-9091
ires	-9092
lege	-9093
live	-9094
onom	-9095
stal	-9096
▁"�	-9097
▁$10	-9098
▁0.5	-9099
▁Coc	-9100
▁Dec	-9101
▁Det	-9102
▁Por	-9103
▁aid	-9104
▁fur	-9105
▁hug	-9106
▁lip	-9107
▁ped	-9108
▁sli	-9109
4����	-9110
About	-9111
aters	-9112
month	-9113
onent	-9114
orget	-9115
rates	-9116
ulary	-9117
▁13��	-9118
▁14��	-9119
▁Chun	-9120
▁Lear	-9121
▁West	-9122
▁Word	-9123
▁flag	-9124
▁oven	-9125
▁pity	-9126
▁slip	-9127
▁ugly	-9128
▁���	-9129
cience	-9130
person	-9131
verted	-9132
▁About	-9133
▁Power	-9134
▁Union	-9135
▁bloom	-9136
▁brace	-9137
▁champ	-9138
▁coins	-9139
▁flour	-9140
▁flows	-9141
▁heads	-9142
▁hired	-9143
▁lobby	-9144
▁panel	-9145
▁repro	-9146
▁rhyth	-9147
▁rises	-9148
▁rolls	-9149
▁walls	-9150
ulating	-9151
▁barely	-9152
▁bitter	-9153
▁buyers	-9154
▁conver	-9155
▁guilty	-9156
▁insect	-9157
▁interm	-9158
▁layout	-9159
▁league	-9160
▁oldest	-9161
▁prosec	-9162
▁purple	-9163
▁summar	-9164
▁thread	-9165
▁wholes	-9166
▁�͸����	-9167
▁�����;	-9168
▁Western	-9169
▁aggress	-9170
▁belongs	-9171
▁dressed	-9172
▁honored	-9173
▁karaoke	-9174
▁largely	-9175
▁reviews	-9176
▁rewards	-9177
▁sources	-9178
▁unemplo	-9179
▁useless	-9180
▁warning	-9181
▁wrapped	-9182
▁Province	-9183
▁accompan	-9184
▁adequate	-9185
▁borrowed	-9186
▁calories	-9187
▁matching	-9188
▁mentally	-9189
▁packages	-9190
▁sacrific	-9191
▁steadily	-9192
▁teamwork	-9193
▁workshop	-9194
▁worrying	-9195
▁�ʾ�����,	-9196
�����̶���	-9197
onsidering	-9198
▁adventure	-9199
▁designers	-9200
▁exception	-9201
▁exercises	-9202
▁forwarder	-9203
▁gratitude	-9204
▁institute	-9205
▁intellect	-9206
▁interface	-9207
▁marketers	-9208
▁positions	-9209
▁preferred	-9210
▁religious	-9211
▁respected	-9212
▁restraint	-9213
▁stability	-9214
▁altogether	-9215
▁applicable	-9216
▁passionate	-9217
▁performing	-9218
▁recognition	-9219
▁experiencing	-9220
▁illustration	-9221
▁manufactured	-9222
.'	-9223
7.	-9224
NF	-9225
Se	-9226
bl	-9227
sa	-9228
wo	-9229
ðų	-9230
ϼ̾	-9231
▁ƴ	-9232
Hey	-9233
eem	-9234
med	-9235
rip	-9236
▁$5	-9237
▁33	-9238
▁ET	-9239
▁Ga	-9240
▁Ty	-9241
▁ec	-9242
▁�	-9243
�̾�	-9244
bean	-9245
hett	-9246
host	-9247
stem	-9248
xual	-9249
▁1.5	-9250
▁Acc	-9251
▁Nep	-9252
▁Pot	-9253
▁Sec	-9254
▁Sol	-9255
▁sne	-9256
▁�3�	-9257
acher	-9258
ajang	-9259
ashes	-9260
estly	-9261
iated	-9262
irman	-9263
liest	-9264
organ	-9265
proof	-9266
umber	-9267
▁"�̴�	-9268
▁Arab	-9269
▁Mart	-9270
▁Open	-9271
▁Wall	-9272
▁chop	-9273
▁dawn	-9274
▁knee	-9275
▁mush	-9276
▁none	-9277
▁plug	-9278
▁sexy	-9279
▁yard	-9280
▁zero	-9281
▁��°�	-9282
��߾�.	-9283
'�̶���	-9284
atural	-9285
giving	-9286
judice	-9287
ounter	-9288
sticks	-9289
ynasty	-9290
▁Buddh	-9291
▁Jenny	-9292
▁Super	-9293
▁blame	-9294
▁chewy	-9295
▁colon	-9296
▁fiber	-9297
▁queen	-9298
▁shake	-9299
▁texts	-9300
▁twist	-9301
▁yield	-9302
outhern	-9303
▁Airbnb	-9304
▁Health	-9305
▁clouds	-9306
▁enroll	-9307
▁intent	-9308
▁margin	-9309
▁pulled	-9310
▁remark	-9311
▁rising	-9312
▁silent	-9313
▁�ʿ���.	-9314
▁�̷����	-9315
Everyone	-9316
Nowadays	-9317
▁Daejeon	-9318
▁Olympic	-9319
▁acquire	-9320
▁blanket	-9321
▁blocked	-9322
▁burning	-9323
▁ceiling	-9324
▁circuit	-9325
▁defects	-9326
▁granted	-9327
▁graphic	-9328
▁lightly	-9329
▁portion	-9330
▁sashimi	-9331
▁�±�����	-9332
▁���̼���	-9333
▁�����̱⵵	-9334
▁Remember	-9335
▁alliance	-9336
▁flexible	-9337
▁innocent	-9338
▁lifetime	-9339
▁midnight	-9340
▁protects	-9341
▁unforget	-9342
▁uniforms	-9343
▁variable	-9344
▁vehicles	-9345
▁acknowled	-9346
▁adjusting	-9347
▁bothering	-9348
▁complaint	-9349
▁destroyed	-9350
▁indicated	-9351
▁messenger	-9352
▁vegetable	-9353
▁�̼�������	-9354
▁�������̴�	-9355
▁completing	-9356
▁curriculum	-9357
▁delivering	-9358
▁depression	-9359
▁maintained	-9360
▁mechanical	-9361
▁monitoring	-9362
▁percentage	-9363
▁physically	-9364
▁retirement	-9365
▁unfamiliar	-9366
▁vocabulary	-9367
▁productivity	-9368
▁unforgettable	-9369
▁interpretation	-9370
',	-9371
26	-9372
5.	-9373
90	-9374
Fi	-9375
TP	-9376
la	-9377
Ϻΰ	-9378
▁/	-9379
Out	-9380
POP	-9381
can	-9382
ema	-9383
mes	-9384
pie	-9385
sis	-9386
▁DI	-9387
▁EM	-9388
▁PI	-9389
▁�˿	-9390
anda	-9391
away	-9392
fice	-9393
weed	-9394
xide	-9395
▁Vol	-9396
▁odd	-9397
▁rul	-9398
▁wig	-9399
▁yes	-9400
-����	-9401
hetti	-9402
igned	-9403
▁Ange	-9404
▁Asso	-9405
▁Food	-9406
▁YouT	-9407
▁east	-9408
▁font	-9409
▁glue	-9410
▁puts	-9411
▁rail	-9412
▁sink	-9413
▁zone	-9414
���̿�	-9415
iences	-9416
lation	-9417
shaped	-9418
uction	-9419
▁2016.	-9420
▁3,000	-9421
▁Class	-9422
▁Kyoto	-9423
▁Skype	-9424
▁Table	-9425
▁amuse	-9426
▁clubs	-9427
▁coast	-9428
▁cough	-9429
▁diary	-9430
▁loose	-9431
▁moral	-9432
▁north	-9433
▁pilot	-9434
▁threw	-9435
▁tutor	-9436
▁wings	-9437
▁wound	-9438
▁�޵���	-9439
▁���;�	-9440
▁���޿�	-9441
▁����/	-9442
��̵���	-9443
Looking	-9444
aghetti	-9445
hearted	-9446
theless	-9447
▁Pororo	-9448
▁assets	-9449
▁babies	-9450
▁counse	-9451
▁decent	-9452
▁deduct	-9453
▁editor	-9454
▁garlic	-9455
▁grocer	-9456
▁horror	-9457
▁incomp	-9458
▁mature	-9459
▁polite	-9460
▁prince	-9461
▁recall	-9462
▁resume	-9463
▁statue	-9464
▁�׷���.	-9465
�����̸�	-9466
▁Dynasty	-9467
▁amounts	-9468
▁butterf	-9469
▁carrier	-9470
▁cooling	-9471
▁explore	-9472
▁fitness	-9473
▁ginseng	-9474
▁offline	-9475
▁preserv	-9476
▁routine	-9477
▁windows	-9478
▁�̽�����	-9479
▁���ʽ���	-9480
▁checkout	-9481
▁cocktail	-9482
▁donation	-9483
▁earliest	-9484
▁interact	-9485
▁postpone	-9486
▁reducing	-9487
▁reviewed	-9488
▁�����̴�?	-9489
▁accepting	-9490
▁curiosity	-9491
▁honeymoon	-9492
▁investors	-9493
▁locations	-9494
▁measuring	-9495
▁nutrition	-9496
▁occurring	-9497
▁otherwise	-9498
▁variables	-9499
▁���̾�����	-9500
▁classmates	-9501
▁disposable	-9502
▁elasticity	-9503
▁officially	-9504
▁popularity	-9505
▁principles	-9506
▁repeatedly	-9507
▁reputation	-9508
▁desperately	-9509
▁inspiration	-9510
▁requirement	-9511
▁supermarket	-9512
▁�����̾�����	-9513
▁communicating	-9514
▁administrative	-9515
▁Congratulations	-9516
EX	-9517
ga	-9518
py	-9519
õǰ	-9520
�޾	-9521
1⁄2	-9522
ees	-9523
eon	-9524
nut	-9525
޽��	-9526
▁AR	-9527
▁DJ	-9528
▁KR	-9529
▁je	-9530
acle	-9531
ends	-9532
fied	-9533
hang	-9534
rian	-9535
ront	-9536
uate	-9537
whel	-9538
▁27�	-9539
▁Bul	-9540
▁Imp	-9541
▁Met	-9542
▁Rob	-9543
▁dat	-9544
▁mal	-9545
▁mig	-9546
▁tal	-9547
▁�⿬�	-9548
ceive	-9549
cific	-9550
endar	-9551
erget	-9552
ician	-9553
merce	-9554
osaur	-9555
ounce	-9556
▁17��	-9557
▁24��	-9558
▁Hans	-9559
▁Hell	-9560
▁abst	-9561
▁affe	-9562
▁ages	-9563
▁axis	-9564
▁blog	-9565
▁clay	-9566
▁ease	-9567
▁epis	-9568
▁seal	-9569
▁unne	-9570
Korean	-9571
ifying	-9572
ixture	-9573
moking	-9574
unning	-9575
urgers	-9576
▁Apply	-9577
▁Canad	-9578
▁Green	-9579
▁Islam	-9580
▁Start	-9581
▁fewer	-9582
▁holds	-9583
▁parks	-9584
▁salty	-9585
▁spots	-9586
▁thumb	-9587
▁��¡��	-9588
embered	-9589
ologist	-9590
ructure	-9591
▁30,000	-9592
▁Cheong	-9593
▁Little	-9594
▁accord	-9595
▁adoles	-9596
▁agenda	-9597
▁border	-9598
▁breaks	-9599
▁contem	-9600
▁digest	-9601
▁enable	-9602
▁limits	-9603
▁merely	-9604
▁reform	-9605
▁shapes	-9606
▁smells	-9607
▁washed	-9608
▁wooden	-9609
▁���๰��	-9610
entially	-9611
▁College	-9612
▁desired	-9613
▁drivers	-9614
▁energet	-9615
▁fantasy	-9616
▁funeral	-9617
▁housing	-9618
▁majored	-9619
▁nursing	-9620
▁quietly	-9621
▁returns	-9622
▁snowing	-9623
▁symptom	-9624
▁�޷�����	-9625
▁�߼�����	-9626
▁�����޿�	-9627
stitution	-9628
▁acquaint	-9629
▁aircraft	-9630
▁assembly	-9631
▁backpack	-9632
▁division	-9633
▁honestly	-9634
▁humidity	-9635
▁inviting	-9636
▁involves	-9637
▁opponent	-9638
▁overwhel	-9639
▁restroom	-9640
▁strictly	-9641
▁�������	-9642
▁excluding	-9643
▁uploading	-9644
▁�÷�������	-9645
▁encouraged	-9646
▁expiration	-9647
▁integrated	-9648
▁refreshing	-9649
▁remembered	-9650
▁Information	-9651
▁competitors	-9652
▁limitations	-9653
▁unavailable	-9654
▁embarrassing	-9655
▁identification	-9656
23	-9657
cs	-9658
mL	-9659
̸鼭	-9660
ݼ۵	-9661
�̴	-9662
Are	-9663
ali	-9664
bec	-9665
ola	-9666
rey	-9667
udy	-9668
uum	-9669
uzz	-9670
▁1-	-9671
▁FW	-9672
▁HS	-9673
▁�鿡	-9674
��̼	-9675
doll	-9676
gien	-9677
gung	-9678
hyun	-9679
ille	-9680
lsan	-9681
oted	-9682
ples	-9683
uous	-9684
▁10.	-9685
▁Gra	-9686
▁Los	-9687
▁Ori	-9688
▁Son	-9689
▁Tem	-9690
▁Web	-9691
▁unb	-9692
�׿�.	-9693
�߾�.	-9694
Maybe	-9695
allow	-9696
amsan	-9697
cular	-9698
field	-9699
ppers	-9700
▁Also	-9701
▁Bill	-9702
▁Game	-9703
▁Geun	-9704
▁Land	-9705
▁Plan	-9706
▁Swit	-9707
▁cogn	-9708
▁cure	-9709
▁disg	-9710
▁insu	-9711
▁sofa	-9712
▁tent	-9713
▁twin	-9714
▁vent	-9715
▁wage	-9716
▁yoga	-9717
▁���	-9718
�̾���	-9719
icated	-9720
inding	-9721
itudes	-9722
making	-9723
▁Enter	-9724
▁Frank	-9725
▁Henry	-9726
▁antib	-9727
▁arrow	-9728
▁cakes	-9729
▁candy	-9730
▁cares	-9731
▁fluct	-9732
▁ghost	-9733
▁mount	-9734
▁phase	-9735
▁stole	-9736
▁���˸�	-9737
Usually	-9738
cessary	-9739
uration	-9740
▁Nobody	-9741
▁Pyeong	-9742
▁Select	-9743
▁Travel	-9744
▁absorb	-9745
▁bacter	-9746
▁bullet	-9747
▁column	-9748
▁crimes	-9749
▁evenly	-9750
▁excite	-9751
▁fought	-9752
▁harmon	-9753
▁layers	-9754
▁module	-9755
▁myster	-9756
▁pushed	-9757
▁refuse	-9758
▁rhythm	-9759
▁wheels	-9760
▁�÷����	-9761
▁athlete	-9762
▁charger	-9763
▁cleared	-9764
▁discard	-9765
▁dispute	-9766
▁dynamic	-9767
▁enemies	-9768
▁gallery	-9769
▁intense	-9770
▁lighter	-9771
▁ongoing	-9772
▁perhaps	-9773
▁pointed	-9774
▁pushing	-9775
▁readers	-9776
▁singers	-9777
▁teaches	-9778
▁trainer	-9779
▁�˾�����	-9780
��̾�����	-9781
Otherwise	-9782
isticated	-9783
▁agencies	-9784
▁artistic	-9785
▁cheerful	-9786
▁excluded	-9787
▁generate	-9788
▁guidance	-9789
▁keyboard	-9790
▁prettier	-9791
▁removing	-9792
▁repaired	-9793
▁settings	-9794
▁�������⸦	-9795
▁Everybody	-9796
▁amusement	-9797
▁applicant	-9798
▁attracted	-9799
▁celebrity	-9800
▁describes	-9801
▁discontin	-9802
▁economics	-9803
▁fermented	-9804
▁hamburger	-9805
▁luxurious	-9806
▁officials	-9807
▁�������̱�	-9808
Considering	-9809
▁confirming	-9810
▁correction	-9811
▁decreasing	-9812
▁guidelines	-9813
▁organizing	-9814
▁prevention	-9815
▁publishing	-9816
▁restricted	-9817
Nevertheless	-9818
▁accessories	-9819
▁accommodate	-9820
▁considerate	-9821
▁headquarter	-9822
▁necessarily	-9823
▁accidentally	-9824
%.	-9825
19	-9826
7,	-9827
8,	-9828
9,	-9829
Ke	-9830
oh	-9831
sp	-9832
ƽɹ	-9833
Ϻκ	-9834
�°	-9835
Che	-9836
Con	-9837
bag	-9838
cha	-9839
esy	-9840
guk	-9841
iar	-9842
iot	-9843
isc	-9844
ita	-9845
lin	-9846
oir	-9847
oly	-9848
osa	-9849
zes	-9850
▁6,	-9851
▁9.	-9852
▁CF	-9853
▁Ca	-9854
▁DM	-9855
▁HQ	-9856
▁Ok	-9857
▁QR	-9858
▁SD	-9859
▁Up	-9860
▁ĸó	-9861
��	-9862
:30.	-9863
Good	-9864
anes	-9865
elve	-9866
ests	-9867
gogi	-9868
oked	-9869
opus	-9870
ript	-9871
tage	-9872
޷���	-9873
▁700	-9874
▁Cur	-9875
▁Ham	-9876
▁OEM	-9877
▁Rel	-9878
▁ank	-9879
▁fax	-9880
▁gum	-9881
▁oct	-9882
▁sib	-9883
▁̧��	-9884
���̴	-9885
arium	-9886
avors	-9887
jeong	-9888
ushed	-9889
׾���.	-9890
▁Char	-9891
▁Club	-9892
▁Miss	-9893
▁Over	-9894
▁Wind	-9895
▁Work	-9896
▁bone	-9897
▁cave	-9898
▁dear	-9899
▁evil	-9900
▁fork	-9901
▁mole	-9902
▁pace	-9903
▁rope	-9904
▁sang	-9905
▁saus	-9906
▁silk	-9907
▁tied	-9908
▁�԰��	-9909
▁�๰��	-9910
����	-9911
angeul	-9912
cribed	-9913
idding	-9914
ressed	-9915
rolled	-9916
ultane	-9917
▁Count	-9918
▁Creat	-9919
▁Party	-9920
▁Press	-9921
▁Queen	-9922
▁Santa	-9923
▁Seung	-9924
▁Steve	-9925
▁Under	-9926
▁accel	-9927
▁alloc	-9928
▁argue	-9929
▁curry	-9930
▁hated	-9931
▁homes	-9932
▁laser	-9933
▁repet	-9934
▁roles	-9935
▁snows	-9936
▁socks	-9937
▁stack	-9938
▁weigh	-9939
▁���̱⵵	-9940
▁���̼�	-9941
ensions	-9942
itivity	-9943
▁Follow	-9944
▁Hangul	-9945
▁Manila	-9946
▁Mongol	-9947
▁betray	-9948
▁breast	-9949
▁deterg	-9950
▁fairly	-9951
▁hiding	-9952
▁linked	-9953
▁outfit	-9954
▁rubber	-9955
▁shares	-9956
▁sooner	-9957
▁volunt	-9958
▁���̾��	-9959
▁�����̰	-9960
�̿���."	-9961
▁8������	-9962
▁Angeles	-9963
▁Discuss	-9964
▁advised	-9965
▁embassy	-9966
▁filming	-9967
▁islands	-9968
▁killing	-9969
▁painted	-9970
▁pension	-9971
▁picking	-9972
▁pricing	-9973
▁shorter	-9974
▁silence	-9975
▁soldier	-9976
▁species	-9977
▁¥������	-9978
▁�޸�����	-9979
▁Minister	-9980
▁calendar	-9981
▁dreaming	-9982
▁emphasis	-9983
▁equality	-9984
▁hardship	-9985
▁lighting	-9986
▁notified	-9987
▁overtime	-9988
▁receives	-9989
▁relation	-9990
▁resident	-9991
▁stranger	-9992
▁superior	-9993
▁tendency	-9994
▁Happiness	-9995
▁ancestors	-9996
▁attitudes	-9997
▁calculate	-9998
▁cleansing	-9999
▁contracts	-10000
▁energetic	-10001
▁execution	-10002
▁literally	-10003
▁lunchtime	-10004
▁necessity	-10005
▁practices	-10006
▁realistic	-10007
▁residence	-10008
▁sacrifice	-10009
▁simultane	-10010
▁�����̳׿�.	-10011
▁Vietnamese	-10012
▁acceptance	-10013
▁chopsticks	-10014
▁electrical	-10015
▁guaranteed	-10016
▁playground	-10017
▁strawberry	-10018
▁�����߾����	-10019
▁achievement	-10020
▁implemented	-10021
▁interaction	-10022
▁researchers	-10023
▁understands	-10024
▁unnecessary	-10025
▁headquarters	-10026
▁insufficient	-10027
▁moisturizing	-10028
▁authorization	-10029
▁misunderstood	-10030
▁professionals	-10031
▁sophisticated	-10032
▁implementation	-10033
21	-10034
35	-10035
AB	-10036
TI	-10037
TO	-10038
-��	-10039
300	-10040
800	-10041
Its	-10042
ari	-10043
ded	-10044
hot	-10045
iam	-10046
ifi	-10047
iro	-10048
olf	-10049
rog	-10050
▁"2	-10051
▁4-	-10052
▁99	-10053
▁BM	-10054
▁MD	-10055
▁NC	-10056
▁PH	-10057
▁Sl	-10058
��̰	-10059
��̿	-10060
ails	-10061
anas	-10062
ania	-10063
oken	-10064
ompl	-10065
rint	-10066
umin	-10067
yung	-10068
▁195	-10069
▁31�	-10070
▁40�	-10071
▁Bay	-10072
▁Dem	-10073
▁Dub	-10074
▁Dut	-10075
▁Hye	-10076
▁Inf	-10077
▁SIM	-10078
▁SMS	-10079
▁Sea	-10080
▁aer	-10081
▁cyl	-10082
▁eld	-10083
▁syn	-10084
▁tox	-10085
▁unh	-10086
▁�׾�	-10087
��̼�	-10088
Where	-10089
attle	-10090
folio	-10091
ienna	-10092
ilton	-10093
ingly	-10094
stery	-10095
stone	-10096
utors	-10097
▁18��	-10098
▁Alex	-10099
▁Lord	-10100
▁Yout	-10101
▁dirt	-10102
▁gray	-10103
▁info	-10104
▁stro	-10105
▁tale	-10106
▁tang	-10107
▁tiny	-10108
▁tube	-10109
▁weld	-10110
▁�⿩��	-10111
▁���߼	-10112
����	-10113
ffeine	-10114
gorith	-10115
orient	-10116
ourier	-10117
stream	-10118
undant	-10119
▁Light	-10120
▁Money	-10121
▁acted	-10122
▁aside	-10123
▁attor	-10124
▁brows	-10125
▁charm	-10126
▁eager	-10127
▁enorm	-10128
▁femin	-10129
▁flood	-10130
▁spell	-10131
▁stere	-10132
▁tends	-10133
▁tiger	-10134
▁�˾���	-10135
▁�̴���	-10136
▁���_�	-10137
anguage	-10138
zerland	-10139
▁Figure	-10140
▁Having	-10141
▁Indust	-10142
▁Namsan	-10143
▁Public	-10144
▁Things	-10145
▁Vienna	-10146
▁affili	-10147
▁allerg	-10148
▁copies	-10149
▁covers	-10150
▁defeat	-10151
▁divide	-10152
▁insist	-10153
▁lyrics	-10154
▁pallet	-10155
▁shadow	-10156
▁shrimp	-10157
▁tender	-10158
▁vacuum	-10159
▁visits	-10160
▁���⹰��	-10161
▁�����	-10162
�����?"	-10163
�����̳�	-10164
▁"�׸���,	-10165
▁Contact	-10166
▁Express	-10167
▁Gangwon	-10168
▁actress	-10169
▁choices	-10170
▁dentist	-10171
▁diamond	-10172
▁filling	-10173
▁founded	-10174
▁outline	-10175
▁scratch	-10176
▁touches	-10177
▁�¿�����	-10178
▁�˻�����	-10179
unication	-10180
▁discover	-10181
▁enclosed	-10182
▁memorize	-10183
▁presence	-10184
▁supplier	-10185
▁versions	-10186
▁wondered	-10187
▁���׷��̵�	-10188
▁�����̳ʿ�	-10189
▁abandoned	-10190
▁accompany	-10191
▁eliminate	-10192
▁encounter	-10193
▁estimates	-10194
▁overnight	-10195
▁reactions	-10196
▁recovered	-10197
▁travelers	-10198
▁typically	-10199
▁undergrad	-10200
▁wholesale	-10201
▁�߻��߾���.	-10202
▁�����̾�."	-10203
rastructure	-10204
▁Technology	-10205
▁beneficial	-10206
▁classified	-10207
▁compatible	-10208
▁consulting	-10209
▁counseling	-10210
▁dictionary	-10211
▁excitement	-10212
▁internally	-10213
▁preventing	-10214
▁structures	-10215
▁substances	-10216
▁treatments	-10217
▁�������׽��	-10218
▁Association	-10219
▁Switzerland	-10220
▁distinguish	-10221
▁experiments	-10222
▁sensitivity	-10223
������������	-10224
▁constitution	-10225
▁hospitalized	-10226
▁prescription	-10227
▁significantly	-10228
▁������������?	-10229
▁communications	-10230
▁�������̾�����.	-10231
37	-10232
47	-10233
ET	-10234
GB	-10235
�̹	-10236
�̿	-10237
"",	-10238
ait	-10239
cur	-10240
hem	-10241
jun	-10242
mma	-10243
osh	-10244
tte	-10245
▁1:	-10246
▁5.	-10247
▁AB	-10248
▁CV	-10249
▁MS	-10250
▁Ưȭ	-10251
��̵	-10252
Upon	-10253
andy	-10254
dney	-10255
emor	-10256
itan	-10257
norm	-10258
play	-10259
usan	-10260
yang	-10261
·��,	-10262
޸���	-10263
▁110	-10264
▁14�	-10265
▁16�	-10266
▁Ber	-10267
▁Cut	-10268
▁GMO	-10269
▁Out	-10270
▁Str	-10271
▁Tim	-10272
▁UCC	-10273
▁USB	-10274
▁han	-10275
▁pip	-10276
▁vul	-10277
▁�ʾ	-10278
▁�׼�	-10279
▁�򰡿�	-10280
Under	-10281
athon	-10282
bucks	-10283
essed	-10284
lands	-10285
olved	-10286
ounge	-10287
umble	-10288
worth	-10289
▁16��	-10290
▁Move	-10291
▁Rice	-10292
▁Rich	-10293
▁alph	-10294
▁appa	-10295
▁dies	-10296
▁gest	-10297
▁grey	-10298
▁rode	-10299
▁slim	-10300
▁wipe	-10301
▁��÷�	-10302
Rather	-10303
acific	-10304
ductor	-10305
minute	-10306
orders	-10307
▁Color	-10308
▁Franc	-10309
▁Nepal	-10310
▁Roman	-10311
▁Using	-10312
▁Yeong	-10313
▁awake	-10314
▁boost	-10315
▁clerk	-10316
▁coach	-10317
▁debit	-10318
▁jelly	-10319
▁jokes	-10320
▁knock	-10321
▁miles	-10322
▁sheep	-10323
▁shelf	-10324
▁spray	-10325
▁tires	-10326
▁�׼���	-10327
▁��2��	-10328
holders	-10329
▁Anyone	-10330
▁Design	-10331
▁Mexico	-10332
▁Myeong	-10333
▁Purito	-10334
▁Sydney	-10335
▁cloudy	-10336
▁colder	-10337
▁drives	-10338
▁explos	-10339
▁fortun	-10340
▁frozen	-10341
▁frying	-10342
▁gloves	-10343
▁losses	-10344
▁melted	-10345
▁plates	-10346
▁scenar	-10347
▁sorrow	-10348
▁taller	-10349
▁wisdom	-10350
▁�����	-10351
▁�����̼	-10352
Whatever	-10353
omething	-10354
onscious	-10355
oriented	-10356
▁Chicken	-10357
▁anticip	-10358
▁apology	-10359
▁approve	-10360
▁expired	-10361
▁grandma	-10362
▁massive	-10363
▁mixture	-10364
▁neglect	-10365
▁offices	-10366
▁outcome	-10367
▁passage	-10368
▁periods	-10369
▁ranking	-10370
▁regrets	-10371
▁talents	-10372
▁tension	-10373
▁thermal	-10374
▁trusted	-10375
▁÷���߽��	-10376
▁���̵��	-10377
▁�����̾	-10378
▁controls	-10379
▁detected	-10380
▁firmware	-10381
▁floating	-10382
▁fluently	-10383
▁freshman	-10384
▁invented	-10385
▁notebook	-10386
▁persuade	-10387
▁producer	-10388
▁remained	-10389
▁resolved	-10390
▁stations	-10391
▁wrinkles	-10392
▁�3⁄4���	-10393
▁�׸�����.	-10394
▁�������	-10395
��������,	-10396
▁bookstore	-10397
▁conflicts	-10398
▁criticism	-10399
▁daughters	-10400
▁diagnosis	-10401
▁discounts	-10402
▁expertise	-10403
▁initially	-10404
▁ownership	-10405
▁passenger	-10406
▁precisely	-10407
▁shoulders	-10408
▁strangers	-10409
▁�¶�������	-10410
▁�׷�������	-10411
▁comprehens	-10412
▁explaining	-10413
▁progressed	-10414
▁proportion	-10415
▁scientists	-10416
▁Electronics	-10417
▁celebration	-10418
▁circulation	-10419
▁cooperative	-10420
▁countryside	-10421
▁departments	-10422
▁efficiently	-10423
▁intelligent	-10424
▁mathematics	-10425
▁observation	-10426
▁�������̽���	-10427
▁confidential	-10428
▁consequences	-10429
▁transferring	-10430
▁establishment	-10431
▁personalities	-10432
4�	-10433
AL	-10434
PC	-10435
RM	-10436
TC	-10437
ȭź	-10438
׶�	-10439
جم	-10440
�	-10441
het	-10442
ido	-10443
obs	-10444
olk	-10445
ros	-10446
ste	-10447
▁42	-10448
▁Ce	-10449
▁DC	-10450
▁Ly	-10451
▁MC	-10452
▁PU	-10453
▁VR	-10454
▁ģȭ	-10455
▁�޻	-10456
⸸��	-10457
30��	-10458
comp	-10459
conf	-10460
engu	-10461
olic	-10462
onym	-10463
¿���	-10464
▁"�׻	-10465
▁10-	-10466
▁180	-10467
▁1�⿡	-10468
▁Ben	-10469
▁Eun	-10470
▁FBA	-10471
▁Joe	-10472
▁Pen	-10473
▁Seo	-10474
▁Sin	-10475
▁Tan	-10476
▁Vis	-10477
▁Woo	-10478
▁Yoo	-10479
▁ads	-10480
▁bio	-10481
▁gel	-10482
▁haz	-10483
▁mud	-10484
▁san	-10485
▁tab	-10486
�̾�.	-10487
��͸�	-10488
ampoo	-10489
ashed	-10490
cycle	-10491
eding	-10492
grade	-10493
ierce	-10494
iller	-10495
orted	-10496
ratic	-10497
works	-10498
▁2010	-10499
▁Girl	-10500
▁Hosp	-10501
▁Meet	-10502
▁Yeon	-10503
▁ador	-10504
▁bump	-10505
▁corn	-10506
▁dece	-10507
▁dump	-10508
▁fate	-10509
▁lied	-10510
▁ours	-10511
▁rays	-10512
▁ster	-10513
▁unst	-10514
▁�˸��	-10515
▁���԰	-10516
apping	-10517
elling	-10518
icians	-10519
ushing	-10520
▁""���	-10521
▁Agree	-10522
▁Brown	-10523
▁Filip	-10524
▁Right	-10525
▁Seong	-10526
▁Three	-10527
▁faced	-10528
▁flash	-10529
▁grill	-10530
▁inher	-10531
▁manip	-10532
▁nerve	-10533
▁pills	-10534
▁scope	-10535
▁skate	-10536
▁sweat	-10537
▁syrup	-10538
▁���̾	-10539
▁���޵˴	-10540
���̾�.	-10541
����̸�	-10542
osexual	-10543
▁21����	-10544
▁50����	-10545
▁Coffee	-10546
▁George	-10547
▁comply	-10548
▁config	-10549
▁depict	-10550
▁firmly	-10551
▁hygien	-10552
▁ration	-10553
▁roller	-10554
▁script	-10555
▁serial	-10556
▁�����	-10557
▁Explain	-10558
▁Kingdom	-10559
▁Stadium	-10560
▁Sundays	-10561
▁Various	-10562
▁Welcome	-10563
▁Youtube	-10564
▁accompl	-10565
▁ashamed	-10566
▁barrier	-10567
▁crossed	-10568
▁doctors	-10569
▁essence	-10570
▁fabrics	-10571
▁journal	-10572
▁lottery	-10573
▁oneself	-10574
▁partial	-10575
▁reverse	-10576
▁shuttle	-10577
▁suppose	-10578
▁tournam	-10579
▁visible	-10580
▁���÷���	-10581
▁abstract	-10582
▁airlines	-10583
▁algorith	-10584
▁cheering	-10585
▁contacts	-10586
▁darkness	-10587
▁enhanced	-10588
▁failures	-10589
▁hundreds	-10590
▁meanings	-10591
▁punished	-10592
▁shortage	-10593
▁stickers	-10594
▁substant	-10595
▁throwing	-10596
▁Institute	-10597
▁affection	-10598
▁batteries	-10599
▁exchanged	-10600
▁franchise	-10601
▁healthier	-10602
▁prejudice	-10603
▁responses	-10604
▁suspended	-10605
▁territory	-10606
▁uncertain	-10607
▁�޴�������	-10608
▁accordance	-10609
▁applicants	-10610
▁belongings	-10611
▁discounted	-10612
▁loneliness	-10613
▁objectives	-10614
▁settlement	-10615
▁systematic	-10616
▁constructed	-10617
▁problematic	-10618
▁transparent	-10619
▁certificates	-10620
▁congratulate	-10621
▁explanations	-10622
▁volunteering	-10623
▁manufacturers	-10624
▁possibilities	-10625
▁���������̼���	-10626
En	-10627
LA	-10628
ku	-10629
va	-10630
yu	-10631
Ǹŷ	-10632
▁Ⱦ	-10633
�̻	-10634
...	-10635
Min	-10636
axy	-10637
boy	-10638
gal	-10639
iev	-10640
mar	-10641
▁95	-10642
▁DD	-10643
▁HP	-10644
▁Hw	-10645
▁Io	-10646
▁Lo	-10647
▁NF	-10648
▁Ob	-10649
▁PS	-10650
▁SC	-10651
▁na	-10652
�̵�	-10653
Dear	-10654
Mean	-10655
Sure	-10656
comm	-10657
emun	-10658
etry	-10659
fall	-10660
gent	-10661
imal	-10662
kers	-10663
long	-10664
omin	-10665
ttes	-10666
¶���	-10667
޴���	-10668
▁220	-10669
▁40%	-10670
▁800	-10671
▁Ann	-10672
▁Cup	-10673
▁Fam	-10674
▁GPS	-10675
▁Mil	-10676
▁Mun	-10677
▁NAS	-10678
▁agg	-10679
▁kil	-10680
▁mac	-10681
▁��	-10682
appro	-10683
elled	-10684
oking	-10685
stall	-10686
▁"�׻�	-10687
▁$100	-10688
▁100�	-10689
▁21��	-10690
▁60��	-10691
▁Chan	-10692
▁Free	-10693
▁Kids	-10694
▁Lisa	-10695
▁Team	-10696
▁Term	-10697
▁Vill	-10698
▁auto	-10699
▁bars	-10700
▁bold	-10701
▁bran	-10702
▁conv	-10703
▁foam	-10704
▁isol	-10705
▁lean	-10706
▁memo	-10707
▁pine	-10708
▁rear	-10709
▁sake	-10710
▁spin	-10711
▁sunb	-10712
▁synt	-10713
▁vacc	-10714
▁�޸��	-10715
▁���	-10716
▁�𸥴�.	-10717
���󿡼�	-10718
active	-10719
papers	-10720
rating	-10721
̽�����	-10722
▁2016,	-10723
▁Charl	-10724
▁Fedex	-10725
▁Greek	-10726
▁Inter	-10727
▁Micro	-10728
▁Music	-10729
▁Smart	-10730
▁ankle	-10731
▁audit	-10732
▁brill	-10733
▁drops	-10734
▁excel	-10735
▁lists	-10736
▁��¦��	-10737
▁����	-10738
▁���󿡴�	-10739
colored	-10740
▁50,000	-10741
▁Master	-10742
▁Spring	-10743
▁Square	-10744
▁Valent	-10745
▁Wouldn	-10746
▁candle	-10747
▁castle	-10748
▁cinema	-10749
▁closet	-10750
▁comedy	-10751
▁crimin	-10752
▁deeper	-10753
▁donate	-10754
▁fixing	-10755
▁fright	-10756
▁gaming	-10757
▁hairst	-10758
▁hiring	-10759
▁lounge	-10760
▁mutual	-10761
▁praise	-10762
▁preced	-10763
▁resend	-10764
▁senses	-10765
▁sheets	-10766
▁skiing	-10767
▁stabil	-10768
▁stones	-10769
▁treats	-10770
▁unlock	-10771
▁valley	-10772
▁�;���?	-10773
▁�߿���.	-10774
�""����	-10775
▁breathe	-10776
▁buttons	-10777
▁claimed	-10778
▁counsel	-10779
▁flights	-10780
▁monster	-10781
▁mystery	-10782
▁passive	-10783
▁placing	-10784
▁puppies	-10785
▁seaweed	-10786
▁seeking	-10787
▁shining	-10788
▁suicide	-10789
▁viewers	-10790
▁������	-10791
▁�����̽�	-10792
itiveness	-10793
▁Ministry	-10794
▁attempts	-10795
▁avoiding	-10796
▁blessing	-10797
▁bracelet	-10798
▁concepts	-10799
▁enormous	-10800
▁examined	-10801
▁exposure	-10802
▁exterior	-10803
▁facebook	-10804
▁improves	-10805
▁invoices	-10806
▁laughing	-10807
▁leftover	-10808
▁magnetic	-10809
▁oriental	-10810
▁portable	-10811
▁revision	-10812
▁suggests	-10813
▁upgraded	-10814
▁vitamins	-10815
▁�������	-10816
▁Starbucks	-10817
▁achieving	-10818
▁breathing	-10819
▁chemistry	-10820
▁comparing	-10821
▁detergent	-10822
▁hospitals	-10823
▁perceived	-10824
▁permanent	-10825
▁releasing	-10826
▁responded	-10827
▁spreading	-10828
▁�˾�������	-10829
▁�����̳���	-10830
▁Tteokbokki	-10831
▁controller	-10832
▁discharged	-10833
▁laboratory	-10834
▁mysterious	-10835
▁perception	-10836
▁suspicious	-10837
▁thoughtful	-10838
▁�������̾�.	-10839
▁�������鿡��	-10840
▁researching	-10841
▁suggestions	-10842
▁sustainable	-10843
▁translating	-10844
▁Thanksgiving	-10845
▁circumstance	-10846
▁contribution	-10847
▁disadvantage	-10848
▁experimental	-10849
▁intellectual	-10850
▁unemployment	-10851
▁�������̾����	-10852
▁�������̿���."	-10853
▁���������̶���	-10854
▁������������,	-10855
▁infrastructure	-10856
'�	-10857
13	-10858
4,	-10859
43	-10860
66	-10861
7%	-10862
EA	-10863
ox	-10864
þƾ	-10865
ǵǾ	-10866
Ƿh	-10867
ȵȴ	-10868
ٻڽ	-10869
▁Ƚ	-10870
�	-10871
Her	-10872
Two	-10873
Yet	-10874
ads	-10875
arn	-10876
gir	-10877
hab	-10878
ona	-10879
rid	-10880
̶�,	-10881
عجم	-10882
▁"5	-10883
▁39	-10884
▁AW	-10885
▁BC	-10886
▁Hu	-10887
▁IN	-10888
▁SB	-10889
�ʿ�	-10890
�̿�	-10891
""?"	-10892
Each	-10893
adly	-10894
card	-10895
eram	-10896
fuci	-10897
oust	-10898
pool	-10899
rops	-10900
sang	-10901
semb	-10902
sole	-10903
teen	-10904
warm	-10905
̱���	-10906
▁18�	-10907
▁Cos	-10908
▁Cre	-10909
▁DIY	-10910
▁DVD	-10911
▁Dok	-10912
▁IoT	-10913
▁Joo	-10914
▁PPT	-10915
▁Pri	-10916
▁Ram	-10917
▁apt	-10918
▁sou	-10919
��?"	-10920
ambod	-10921
hesis	-10922
ictor	-10923
ipper	-10924
oston	-10925
power	-10926
reece	-10927
tered	-10928
▁1950	-10929
▁1960	-10930
▁23��	-10931
▁5���	-10932
▁ASMR	-10933
▁Baek	-10934
▁Hill	-10935
▁Imag	-10936
▁Know	-10937
▁Like	-10938
▁Mess	-10939
▁Mike	-10940
▁Phot	-10941
▁Prep	-10942
▁Rest	-10943
▁fart	-10944
▁flew	-10945
▁jazz	-10946
▁keys	-10947
▁lace	-10948
▁mile	-10949
▁pays	-10950
▁peel	-10951
▁quiz	-10952
▁sore	-10953
▁trim	-10954
▁�¿��	-10955
▁�˾��	-10956
▁���޻	-10957
Unless	-10958
allest	-10959
erable	-10960
ilding	-10961
minton	-10962
vation	-10963
▁200��	-10964
▁Excel	-10965
▁Group	-10966
▁Jones	-10967
▁Study	-10968
▁Sweet	-10969
▁adhes	-10970
▁awful	-10971
▁baked	-10972
▁defic	-10973
▁depth	-10974
▁eleph	-10975
▁giant	-10976
▁hypot	-10977
▁jeans	-10978
▁lemon	-10979
▁mango	-10980
▁stiff	-10981
▁subsc	-10982
▁trace	-10983
▁vivid	-10984
▁wider	-10985
▁�ʾ�."	-10986
▁�˰���	-10987
atively	-10988
igation	-10989
ionship	-10990
riction	-10991
ruption	-10992
section	-10993
smoking	-10994
verages	-10995
▁Cambod	-10996
▁Greece	-10997
▁Nether	-10998
▁Sports	-10999
▁affair	-11000
▁bucket	-11001
▁clinic	-11002
▁gloomy	-11003
▁heater	-11004
▁incent	-11005
▁insult	-11006
▁intest	-11007
▁lively	-11008
▁nicely	-11009
▁onions	-11010
▁palace	-11011
▁proved	-11012
▁proven	-11013
▁retain	-11014
▁savory	-11015
▁subsid	-11016
▁thesis	-11017
▁undert	-11018
▁varies	-11019
▁�����	-11020
▁Gwangju	-11021
▁Hongdae	-11022
▁Whether	-11023
▁YouTube	-11024
▁bedroom	-11025
▁boiling	-11026
▁bubbles	-11027
▁destroy	-11028
▁disgust	-11029
▁donated	-11030
▁exhibit	-11031
▁exports	-11032
▁finance	-11033
▁harvest	-11034
▁inquire	-11035
▁insight	-11036
▁lacking	-11037
▁liberal	-11038
▁persist	-11039
▁persons	-11040
▁recruit	-11041
▁rolling	-11042
▁suspect	-11043
▁updates	-11044
▁wealthy	-11045
▁wrongly	-11046
▁�°�����	-11047
Yesterday	-11048
▁Recently	-11049
▁accuracy	-11050
▁audition	-11051
▁branches	-11052
▁caffeine	-11053
▁captured	-11054
▁cautious	-11055
▁courtesy	-11056
▁expanded	-11057
▁hardware	-11058
▁indirect	-11059
▁outcomes	-11060
▁rewarded	-11061
▁sandwich	-11062
▁skincare	-11063
▁survival	-11064
▁verified	-11065
▁�̷1⁄4���	-11066
▁���̿���?	-11067
▁Agreement	-11068
▁cigarette	-11069
▁competent	-11070
▁confusing	-11071
▁criminals	-11072
▁dumplings	-11073
▁expanding	-11074
▁expresses	-11075
▁frequency	-11076
▁parameter	-11077
▁permitted	-11078
▁principal	-11079
▁recycling	-11080
▁succeeded	-11081
▁�˷�������	-11082
▁���޽�����	-11083
▁�����̽���	-11084
▁�����߾���	-11085
▁Experience	-11086
▁automobile	-11087
▁durability	-11088
▁exchanging	-11089
▁homosexual	-11090
▁inevitable	-11091
▁possession	-11092
▁surrounded	-11093
▁�������׿�.	-11094
▁connections	-11095
▁expectation	-11096
▁fingerprint	-11097
▁investigate	-11098
▁conveniently	-11099
▁occasionally	-11100
▁representing	-11101
▁collaboration	-11102
▁qualification	-11103
▁recommendations	-11104
-0	-11105
48	-11106
?.	-11107
IA	-11108
MP	-11109
TF	-11110
US	-11111
ea	-11112
tr	-11113
ux	-11114
ƿɴ	-11115
ǽñ	-11116
See	-11117
aus	-11118
bin	-11119
cue	-11120
due	-11121
esh	-11122
hou	-11123
loc	-11124
mit	-11125
ped	-11126
pet	-11127
soo	-11128
squ	-11129
tra	-11130
ura	-11131
▁3~	-11132
▁5%	-11133
▁5-	-11134
▁65	-11135
▁Mi	-11136
▁PT	-11137
▁SH	-11138
▁TA	-11139
▁VM	-11140
▁cm	-11141
▁jj	-11142
Make	-11143
Stud	-11144
Will	-11145
acon	-11146
gers	-11147
hous	-11148
life	-11149
mend	-11150
ping	-11151
vals	-11152
walk	-11153
zech	-11154
▁130	-11155
▁17�	-11156
▁190	-11157
▁22�	-11158
▁AAA	-11159
▁Ban	-11160
▁Cam	-11161
▁Ell	-11162
▁Emp	-11163
▁GDP	-11164
▁Inv	-11165
▁KRW	-11166
▁Wal	-11167
▁cav	-11168
▁cub	-11169
▁ric	-11170
▁sha	-11171
▁spo	-11172
▁ted	-11173
��°�	-11174
Happy	-11175
Sadly	-11176
Start	-11177
acles	-11178
anies	-11179
chief	-11180
comed	-11181
esity	-11182
ivery	-11183
nergy	-11184
▁1990	-11185
▁2013	-11186
▁Cath	-11187
▁Cost	-11188
▁Down	-11189
▁Fair	-11190
▁Lake	-11191
▁Main	-11192
▁Terr	-11193
▁Yang	-11194
▁hill	-11195
▁lent	-11196
▁peak	-11197
▁plus	-11198
▁proc	-11199
▁quar	-11200
▁seas	-11201
▁shed	-11202
▁sung	-11203
▁torn	-11204
Should	-11205
astern	-11206
asting	-11207
lisher	-11208
orters	-11209
porary	-11210
▁Chris	-11211
▁Lunar	-11212
▁Night	-11213
▁Ocean	-11214
▁broch	-11215
▁cater	-11216
▁datab	-11217
▁debut	-11218
▁domin	-11219
▁fatig	-11220
▁fifty	-11221
▁fraud	-11222
▁fries	-11223
▁groom	-11224
▁hesit	-11225
▁hoped	-11226
▁imper	-11227
▁lease	-11228
▁onion	-11229
▁packs	-11230
▁recon	-11231
▁rural	-11232
▁salon	-11233
▁serum	-11234
▁shark	-11235
▁shots	-11236
▁spark	-11237
▁spoon	-11238
▁union	-11239
▁�͸���	-11240
berries	-11241
leyball	-11242
▁Boston	-11243
▁Econom	-11244
▁Father	-11245
▁Invest	-11246
▁Potter	-11247
▁awards	-11248
▁debate	-11249
▁deserv	-11250
▁garage	-11251
▁humble	-11252
▁implic	-11253
▁ladies	-11254
▁marine	-11255
▁poison	-11256
▁powers	-11257
▁retrie	-11258
▁sketch	-11259
▁spoken	-11260
▁sticky	-11261
▁subtit	-11262
▁weapon	-11263
▁yogurt	-11264
▁African	-11265
▁Confuci	-11266
▁Imagine	-11267
▁Project	-11268
▁Support	-11269
▁adopted	-11270
▁cherish	-11271
▁collaps	-11272
▁demands	-11273
▁earning	-11274
▁foolish	-11275
▁formula	-11276
▁funding	-11277
▁grocery	-11278
▁highway	-11279
▁imports	-11280
▁landing	-11281
▁leakage	-11282
▁mukbang	-11283
▁omitted	-11284
▁opposed	-11285
▁oranges	-11286
▁posture	-11287
▁roughly	-11288
▁savings	-11289
▁sellers	-11290
▁semicon	-11291
▁shampoo	-11292
▁sunrise	-11293
▁tremend	-11294
▁voltage	-11295
▁wanting	-11296
▁�̲�����	-11297
▁�͸�����	-11298
▁���̴���	-11299
▁���̹���	-11300
Meanwhile	-11301
Professor	-11302
astically	-11303
▁Canadian	-11304
▁abundant	-11305
▁appetite	-11306
▁arrested	-11307
▁attorney	-11308
▁covering	-11309
▁memorial	-11310
▁minimize	-11311
▁outgoing	-11312
▁proceeds	-11313
▁protocol	-11314
▁relaxing	-11315
▁replying	-11316
▁roommate	-11317
▁sequence	-11318
▁tomatoes	-11319
▁traveler	-11320
▁warranty	-11321
▁welcomed	-11322
▁workload	-11323
▁����""��	-11324
▁Gyeongbok	-11325
▁butterfly	-11326
▁concluded	-11327
▁decreases	-11328
▁desperate	-11329
▁diversity	-11330
▁intensity	-11331
▁intermedi	-11332
▁launching	-11333
▁mortality	-11334
▁negotiate	-11335
▁partially	-11336
▁portfolio	-11337
▁selecting	-11338
▁�̹�������	-11339
▁�߿�������	-11340
▁Indonesian	-11341
▁absorption	-11342
▁accountant	-11343
▁candidates	-11344
▁cigarettes	-11345
▁complement	-11346
▁distribute	-11347
▁forwarding	-11348
▁households	-11349
▁newspapers	-11350
▁protecting	-11351
▁satisfying	-11352
▁accompanied	-11353
▁demonstrate	-11354
▁enterprises	-11355
▁fascinating	-11356
▁integration	-11357
▁temporarily	-11358
▁perspectives	-11359
▁restrictions	-11360
▁�������߾���.	-11361
▁documentation	-11362
▁encouragement	-11363
▁psychological	-11364
97	-11365
Jo	-11366
LE	-11367
ca	-11368
mi	-11369
ġŲ	-11370
ʾ�	-11371
700	-11372
Spe	-11373
awa	-11374
ima	-11375
ota	-11376
rem	-11377
ucc	-11378
ƽþȰ	-11379
ٴۇٴ	-11380
▁EC	-11381
▁KT	-11382
▁SF	-11383
▁Sn	-11384
▁py	-11385
��ʽ	-11386
Look	-11387
agen	-11388
auty	-11389
mart	-11390
mind	-11391
rand	-11392
vial	-11393
ʽ���	-11394
̸���	-11395
▁000	-11396
▁13�	-11397
▁350	-11398
▁Amy	-11399
▁BTS	-11400
▁Bor	-11401
▁Cho	-11402
▁Eve	-11403
▁Non	-11404
▁Pan	-11405
▁Soo	-11406
▁Tar	-11407
▁Tor	-11408
▁blu	-11409
▁fox	-11410
▁nic	-11411
▁rac	-11412
▁sed	-11413
▁spa	-11414
▁une	-11415
▁unp	-11416
▁��1	-11417
�̸�,	-11418
�⵵��	-11419
check	-11420
chedu	-11421
ckets	-11422
erals	-11423
inent	-11424
oodle	-11425
overs	-11426
ribly	-11427
shine	-11428
uster	-11429
wangh	-11430
▁Cast	-11431
▁Four	-11432
▁Hist	-11433
▁Hold	-11434
▁Minh	-11435
▁Oper	-11436
▁Phys	-11437
▁Real	-11438
▁Town	-11439
▁hits	-11440
▁melt	-11441
▁outl	-11442
▁plot	-11443
▁puzz	-11444
▁refe	-11445
▁seed	-11446
▁thri	-11447
▁wand	-11448
▁�׽��	-11449
olving	-11450
▁"�̾��	-11451
▁2015,	-11452
▁2017.	-11453
▁Cloud	-11454
▁Czech	-11455
▁Girls	-11456
▁Suwon	-11457
▁abuse	-11458
▁adopt	-11459
▁balls	-11460
▁bonus	-11461
▁burst	-11462
▁ceram	-11463
▁deplo	-11464
▁entit	-11465
▁flies	-11466
▁freel	-11467
▁globe	-11468
▁logic	-11469
▁rocks	-11470
▁squee	-11471
▁trail	-11472
▁woods	-11473
▁�˶���	-11474
ivalent	-11475
lements	-11476
ulatory	-11477
▁2018��	-11478
▁60����	-11479
▁Corpor	-11480
▁Engine	-11481
▁abnorm	-11482
▁balcon	-11483
▁burned	-11484
▁casino	-11485
▁chairs	-11486
▁dining	-11487
▁folder	-11488
▁hanbok	-11489
▁headed	-11490
▁hunger	-11491
▁intens	-11492
▁legend	-11493
▁merits	-11494
▁novels	-11495
▁overfl	-11496
▁raises	-11497
▁thirty	-11498
▁tiring	-11499
▁towels	-11500
▁trains	-11501
▁�̾����	-11502
▁���1⁄4	-11503
▁���׸��	-11504
▁���׽��	-11505
▁�����	-11506
commerce	-11507
▁Hangeul	-11508
▁Mexican	-11509
▁Pacific	-11510
▁annoyed	-11511
▁cabinet	-11512
▁cafeter	-11513
▁comprom	-11514
▁decline	-11515
▁density	-11516
▁derived	-11517
▁differs	-11518
▁eastern	-11519
▁elected	-11520
▁engaged	-11521
▁farming	-11522
▁gravity	-11523
▁hardest	-11524
▁midterm	-11525
▁observe	-11526
▁octopus	-11527
▁painter	-11528
▁pretend	-11529
▁prosper	-11530
▁recipes	-11531
▁romance	-11532
▁scolded	-11533
▁shelter	-11534
▁spirits	-11535
▁sponsor	-11536
▁stocked	-11537
▁venture	-11538
▁vessels	-11539
▁�˷��ٰ�.	-11540
▁���׶���	-11541
▁�����̷�	-11542
roduction	-11543
▁'����'��	-11544
▁Tomorrow	-11545
▁adorable	-11546
▁balanced	-11547
▁believes	-11548
▁chairman	-11549
▁decorate	-11550
▁definite	-11551
▁desserts	-11552
▁diligent	-11553
▁dinosaur	-11554
▁dressing	-11555
▁exceeded	-11556
▁executed	-11557
▁explains	-11558
▁featured	-11559
▁greeting	-11560
▁incorpor	-11561
▁marathon	-11562
▁meantime	-11563
▁merchand	-11564
▁politely	-11565
▁pressing	-11566
▁prospect	-11567
▁speakers	-11568
▁treasure	-11569
▁treating	-11570
▁wireless	-11571
▁�𸣰�����,	-11572
ailability	-11573
ajangmyeon	-11574
▁Francisco	-11575
▁Saturdays	-11576
▁Something	-11577
▁beverages	-11578
▁brilliant	-11579
▁factories	-11580
▁identical	-11581
▁importing	-11582
▁injection	-11583
▁interrupt	-11584
▁magazines	-11585
▁mechanism	-11586
▁shipments	-11587
▁utilizing	-11588
▁́����̼���	-11589
▁����̵���	-11590
▁�����÷���	-11591
▁compensate	-11592
▁engagement	-11593
▁estimation	-11594
▁instructor	-11595
▁medication	-11596
▁references	-11597
▁stretching	-11598
▁substitute	-11599
▁vegetarian	-11600
▁volleyball	-11601
▁programming	-11602
▁restriction	-11603
▁acknowledged	-11604
▁civilization	-11605
▁consistently	-11606
▁discontinued	-11607
▁measurements	-11608
▁configuration	-11609
▁disappointing	-11610
▁effectiveness	-11611
▁entrepreneurs	-11612
-�	-11613
.,	-11614
27	-11615
6,	-11616
65	-11617
95	-11618
AV	-11619
FL	-11620
NG	-11621
hų	-11622
si	-11623
ȵǴ	-11624
߽�	-11625
�	-11626
Per	-11627
Put	-11628
aly	-11629
bab	-11630
def	-11631
gic	-11632
iel	-11633
ige	-11634
oft	-11635
phy	-11636
rot	-11637
top	-11638
uba	-11639
ϼ̴μ	-11640
▁52	-11641
▁85	-11642
▁CM	-11643
▁DB	-11644
▁Ja	-11645
▁OK	-11646
▁Oh	-11647
▁Ta	-11648
▁oy	-11649
▁¡�	-11650
▁źź	-11651
��	-11652
1⁄2�	-11653
Give	-11654
apse	-11655
arah	-11656
code	-11657
ders	-11658
exas	-11659
ller	-11660
quet	-11661
rael	-11662
test	-11663
°�?"	-11664
▁10,	-11665
▁21�	-11666
▁28�	-11667
▁450	-11668
▁Alp	-11669
▁Bet	-11670
▁Bre	-11671
▁CIF	-11672
▁Ent	-11673
▁Hee	-11674
▁Jew	-11675
▁Joh	-11676
▁MCS	-11677
▁Mrs	-11678
▁Pak	-11679
▁Sch	-11680
▁Ten	-11681
▁Toy	-11682
▁VIP	-11683
▁bug	-11684
▁cro	-11685
▁cul	-11686
▁jog	-11687
▁nin	-11688
▁zoo	-11689
���⿡	-11690
Honey	-11691
Those	-11692
aying	-11693
endid	-11694
itage	-11695
ivate	-11696
lette	-11697
venir	-11698
▁2011	-11699
▁27��	-11700
▁3��°	-11701
▁Bell	-11702
▁Camp	-11703
▁Cold	-11704
▁Coun	-11705
▁Dist	-11706
▁Head	-11707
▁Nick	-11708
▁Norm	-11709
▁Once	-11710
▁Pork	-11711
▁anch	-11712
▁drow	-11713
▁fond	-11714
▁forb	-11715
▁junk	-11716
▁lawn	-11717
▁lets	-11718
▁pond	-11719
▁pose	-11720
▁semi	-11721
▁soju	-11722
▁wins	-11723
▁�׶��	-11724
▁�⿬��	-11725
▁���ʿ	-11726
���׿�	-11727
abetes	-11728
ection	-11729
forced	-11730
hedral	-11731
mental	-11732
minded	-11733
ounder	-11734
ptions	-11735
▁2015.	-11736
▁Naver	-11737
▁Sleep	-11738
▁Texas	-11739
▁aired	-11740
▁alike	-11741
▁fifth	-11742
▁horri	-11743
▁knees	-11744
▁lasts	-11745
▁messy	-11746
▁noted	-11747
▁pairs	-11748
▁pores	-11749
▁pound	-11750
▁purse	-11751
▁resid	-11752
▁rides	-11753
▁rumor	-11754
▁silly	-11755
▁slide	-11756
▁surve	-11757
▁thief	-11758
▁tours	-11759
▁�3⁄4	-11760
▁�°���	-11761
▁���̾	-11762
▁���׽�	-11763
▁���޹޾	-11764
▁���޾�	-11765
�'����	-11766
chester	-11767
ilation	-11768
looking	-11769
minutes	-11770
orthern	-11771
ustomed	-11772
▁18����	-11773
▁Empire	-11774
▁Galaxy	-11775
▁Govern	-11776
▁Hilton	-11777
▁Justin	-11778
▁Social	-11779
▁advent	-11780
▁anonym	-11781
▁broker	-11782
▁consol	-11783
▁contra	-11784
▁diving	-11785
▁endure	-11786
▁ethics	-11787
▁heroes	-11788
▁hotter	-11789
▁intend	-11790
▁judged	-11791
▁rained	-11792
▁ruined	-11793
▁stance	-11794
▁twelve	-11795
���̾���	-11796
Tomorrow	-11797
contract	-11798
▁7������	-11799
▁Science	-11800
▁Village	-11801
▁bothers	-11802
▁compass	-11803
▁compete	-11804
▁courier	-11805
▁decades	-11806
▁dislike	-11807
▁easiest	-11808
▁escaped	-11809
▁excuses	-11810
▁existed	-11811
▁healing	-11812
▁inappro	-11813
▁insects	-11814
▁inspect	-11815
▁marking	-11816
▁pending	-11817
▁replied	-11818
▁restore	-11819
▁servant	-11820
▁somehow	-11821
▁specify	-11822
▁startup	-11823
▁surfing	-11824
▁sympath	-11825
▁�޶�����	-11826
▁�����?	-11827
▁��¡����	-11828
▁���޹���	-11829
▁Cambodia	-11830
▁Hospital	-11831
▁Language	-11832
▁Research	-11833
▁allowing	-11834
▁aptitude	-11835
▁bacteria	-11836
▁bleeding	-11837
▁cheapest	-11838
▁develops	-11839
▁divorced	-11840
▁duration	-11841
▁employed	-11842
▁equipped	-11843
▁incurred	-11844
▁minister	-11845
▁networks	-11846
▁operator	-11847
▁rational	-11848
▁receiver	-11849
▁rotation	-11850
▁souvenir	-11851
▁suitcase	-11852
▁sunshine	-11853
▁ultimate	-11854
▁wrapping	-11855
���̿���."	-11856
▁Valentine	-11857
▁addictive	-11858
▁badminton	-11859
▁cafeteria	-11860
▁creatures	-11861
▁dependent	-11862
▁directors	-11863
▁hairstyle	-11864
▁primarily	-11865
▁qualities	-11866
▁reporting	-11867
▁retailers	-11868
▁screening	-11869
▁therapist	-11870
▁�˰�������	-11871
▁Manchester	-11872
▁aggressive	-11873
▁approaches	-11874
▁insulation	-11875
▁originated	-11876
▁prescribed	-11877
▁structural	-11878
▁tournament	-11879
▁�����̿���?	-11880
▁�������̰�,	-11881
▁approximate	-11882
▁distributor	-11883
▁interpreted	-11884
▁probability	-11885
▁unconscious	-11886
▁accomplished	-11887
▁agricultural	-11888
▁environments	-11889
▁transmission	-11890
▁consciousness	-11891
▁disadvantages	-11892
▁semiconductor	-11893
▁undergraduate	-11894
▁�������������	-11895
▁simultaneously	-11896
▁���������̿���.	-11897
-5	-11898
.2	-11899
31	-11900
Ar	-11901
EP	-11902
NE	-11903
Su	-11904
ih	-11905
ja	-11906
õǴ	-11907
˿�	-11908
̽ɹ	-11909
ּ̾	-11910
▁ŷ	-11911
Hon	-11912
ava	-11913
bur	-11914
mel	-11915
sle	-11916
uet	-11917
wed	-11918
▁47	-11919
▁Gl	-11920
▁II	-11921
▁IM	-11922
▁Ve	-11923
▁¥�	-11924
▁�⸦	-11925
鿩��	-11926
��	-11927
arer	-11928
deed	-11929
firm	-11930
ione	-11931
izer	-11932
kcal	-11933
mond	-11934
otes	-11935
umer	-11936
usal	-11937
yard	-11938
▁"�̰	-11939
▁ATM	-11940
▁Ang	-11941
▁Ant	-11942
▁Bob	-11943
▁CNN	-11944
▁Cat	-11945
▁DVR	-11946
▁FOB	-11947
▁Fre	-11948
▁Jay	-11949
▁LCL	-11950
▁Lib	-11951
▁MAC	-11952
▁Maj	-11953
▁Mod	-11954
▁STI	-11955
▁Van	-11956
▁Vin	-11957
▁bol	-11958
▁dia	-11959
▁dup	-11960
▁hal	-11961
▁hel	-11962
▁obe	-11963
▁reb	-11964
▁tro	-11965
▁�͹̳	-11966
��̵�	-11967
Using	-11968
amous	-11969
canic	-11970
ching	-11971
eries	-11972
exist	-11973
lings	-11974
matic	-11975
otted	-11976
piece	-11977
raine	-11978
rants	-11979
seong	-11980
sided	-11981
tical	-11982
uries	-11983
utral	-11984
▁ASIN	-11985
▁Card	-11986
▁Eric	-11987
▁Gogh	-11988
▁Home	-11989
▁Lead	-11990
▁Live	-11991
▁Mont	-11992
▁Pass	-11993
▁Snow	-11994
▁Swed	-11995
▁buck	-11996
▁bund	-11997
▁cope	-11998
▁cush	-11999
▁drum	-12000
▁eyel	-12001
▁hadn	-12002
▁lung	-12003
▁myth	-12004
▁palm	-12005
▁tons	-12006
▁vine	-12007
▁�˱��	-12008
▁���	-12009
�̵���	-12010
aching	-12011
change	-12012
esteem	-12013
liance	-12014
ombies	-12015
orship	-12016
▁Alice	-12017
▁Bring	-12018
▁Dream	-12019
▁Dubai	-12020
▁Dutch	-12021
▁Ident	-12022
▁Liber	-12023
▁Order	-12024
▁advis	-12025
▁chron	-12026
▁forth	-12027
▁holes	-12028
▁lacks	-12029
▁links	-12030
▁macar	-12031
▁medal	-12032
▁owned	-12033
▁prime	-12034
▁shine	-12035
▁sunny	-12036
▁theft	-12037
▁toner	-12038
▁�3⁄4	-12039
▁�˵���	-12040
▁�׷��⿡	-12041
�̾����	-12042
Overall	-12043
ersonal	-12044
inction	-12045
ocolate	-12046
▁14����	-12047
▁19����	-12048
▁Assemb	-12049
▁Eating	-12050
▁Edward	-12051
▁Mobile	-12052
▁Modern	-12053
▁Second	-12054
▁Venice	-12055
▁amazed	-12056
▁apples	-12057
▁banana	-12058
▁banned	-12059
▁barbec	-12060
▁buffet	-12061
▁cruise	-12062
▁drawer	-12063
▁entity	-12064
▁fellow	-12065
▁fierce	-12066
▁fights	-12067
▁filmed	-12068
▁floors	-12069
▁handwr	-12070
▁inject	-12071
▁loudly	-12072
▁mixing	-12073
▁pickup	-12074
▁reader	-12075
▁resign	-12076
▁shrink	-12077
▁stamps	-12078
▁steady	-12079
▁tariff	-12080
▁waiter	-12081
▁warmer	-12082
▁wasted	-12083
▁�ʼ����	-12084
�޷�����	-12085
▁Article	-12086
▁Britain	-12087
▁Element	-12088
▁Foreign	-12089
▁Jackson	-12090
▁Program	-12091
▁Seattle	-12092
▁Special	-12093
▁Washing	-12094
▁assumed	-12095
▁awarded	-12096
▁citizen	-12097
▁combine	-12098
▁compuls	-12099
▁council	-12100
▁coupons	-12101
▁credits	-12102
▁decides	-12103
▁deliber	-12104
▁enforce	-12105
▁figured	-12106
▁flavors	-12107
▁hitting	-12108
▁issuing	-12109
▁logging	-12110
▁matched	-12111
▁mothers	-12112
▁renewed	-12113
▁statist	-12114
▁subscri	-12115
▁utilize	-12116
▁́����̼�	-12117
▁�׵�����	-12118
▁���±���	-12119
▁���׿�."	-12120
▁���𿡼���	-12121
amination	-12122
▁Haeundae	-12123
▁addicted	-12124
▁admitted	-12125
▁attacked	-12126
▁backward	-12127
▁brighter	-12128
▁collapse	-12129
▁concerts	-12130
▁delivers	-12131
▁diabetes	-12132
▁indicate	-12133
▁inquired	-12134
▁interval	-12135
▁operates	-12136
▁reaching	-12137
▁southern	-12138
▁splendid	-12139
▁supervis	-12140
▁�����̾��	-12141
���߾���."	-12142
▁activated	-12143
▁analyzing	-12144
▁companion	-12145
▁dedicated	-12146
▁executive	-12147
▁fragrance	-12148
▁framework	-12149
▁instantly	-12150
▁secretary	-12151
▁spaghetti	-12152
▁textbooks	-12153
▁violation	-12154
▁�1⁄4�����	-12155
▁�ʿ�������	-12156
▁�������͸�	-12157
▁accustomed	-12158
▁chocolates	-12159
▁criticized	-12160
▁emphasized	-12161
▁equivalent	-12162
▁horizontal	-12163
▁incredibly	-12164
▁influences	-12165
▁interviews	-12166
▁occupation	-12167
▁ridiculous	-12168
▁transition	-12169
▁ultimately	-12170
▁withdrawal	-12171
▁celebrating	-12172
▁declaration	-12173
▁flexibility	-12174
▁inventories	-12175
▁meaningless	-12176
▁operational	-12177
▁unification	-12178
▁capabilities	-12179
▁concentrated	-12180
▁implementing	-12181
▁increasingly	-12182
▁technological	-12183
▁qualifications	-12184
▁competitiveness	-12185
'?	-12186
29	-12187
;�	-12188
Fr	-12189
KO	-12190
OD	-12191
ui	-12192
Ÿũ	-12193
ƽð	-12194
Ǫġ	-12195
ȭå	-12196
Ϻο	-12197
▁+	-12198
%."	-12199
bul	-12200
kok	-12201
nov	-12202
omi	-12203
udi	-12204
ƽþƿ	-12205
▁6-	-12206
▁FB	-12207
▁MV	-12208
▁Uk	-12209
�°�	-12210
�԰�	-12211
��	-12212
alls	-12213
asts	-12214
berg	-12215
bone	-12216
chon	-12217
ctic	-12218
gans	-12219
iden	-12220
ints	-12221
irth	-12222
lord	-12223
ocal	-12224
onge	-12225
onia	-12226
oral	-12227
pass	-12228
rich	-12229
soft	-12230
uter	-12231
׽���	-12232
▁160	-12233
▁23�	-12234
▁Doo	-12235
▁Env	-12236
▁Ext	-12237
▁Gun	-12238
▁Hon	-12239
▁MPS	-12240
▁Naz	-12241
▁OSD	-12242
▁PCB	-12243
▁Pra	-12244
▁Roy	-12245
▁SKU	-12246
▁Sil	-12247
▁Sur	-12248
▁dio	-12249
▁lid	-12250
▁lit	-12251
▁lod	-12252
▁tid	-12253
▁�鿩�	-12254
6����	-12255
9����	-12256
Gener	-12257
Later	-12258
allel	-12259
aping	-12260
esame	-12261
iffel	-12262
ifier	-12263
izens	-12264
loved	-12265
oftop	-12266
orses	-12267
plate	-12268
range	-12269
rents	-12270
scale	-12271
utter	-12272
̿���,	-12273
ٰ���?	-12274
▁45��	-12275
▁CCTV	-12276
▁Chem	-12277
▁Chin	-12278
▁Draw	-12279
▁Ever	-12280
▁Fail	-12281
▁Help	-12282
▁Mach	-12283
▁Post	-12284
▁Save	-12285
▁Step	-12286
▁Tony	-12287
▁Uber	-12288
▁adds	-12289
▁crab	-12290
▁disk	-12291
▁dism	-12292
▁dull	-12293
▁frag	-12294
▁irre	-12295
▁keen	-12296
▁lion	-12297
▁�˾�?	-12298
▁���	-12299
▁���·	-12300
▁���๰	-12301
▁���򰡿	-12302
arling	-12303
charge	-12304
uality	-12305
uccino	-12306
weight	-12307
worker	-12308
߾���."	-12309
▁500��	-12310
▁Chall	-12311
▁Click	-12312
▁Dokdo	-12313
▁Emplo	-12314
▁aroma	-12315
▁batch	-12316
▁bench	-12317
▁brave	-12318
▁divid	-12319
▁draws	-12320
▁filed	-12321
▁nails	-12322
▁pitch	-12323
▁purif	-12324
▁rings	-12325
▁safer	-12326
▁simpl	-12327
▁steam	-12328
▁unbel	-12329
▁vague	-12330
▁yards	-12331
▁�̵鿡��	-12332
▁���1�	-12333
▁���˰�	-12334
▁���󺸴�	-12335
attered	-12336
inerary	-12337
itative	-12338
regular	-12339
▁13����	-12340
▁40����	-12341
▁Eiffel	-12342
▁League	-12343
▁Making	-12344
▁Michel	-12345
▁Pohang	-12346
▁Portug	-12347
▁Songdo	-12348
▁Victor	-12349
▁accent	-12350
▁boards	-12351
▁burger	-12352
▁convin	-12353
▁cowork	-12354
▁dealer	-12355
▁enjoys	-12356
▁ethnic	-12357
▁handed	-12358
▁hazard	-12359
▁holder	-12360
▁infect	-12361
▁intake	-12362
▁labels	-12363
▁latter	-12364
▁liquor	-12365
▁mentor	-12366
▁oppose	-12367
▁rating	-12368
▁ruling	-12369
▁rumors	-12370
▁shaped	-12371
▁sliced	-12372
▁slower	-12373
▁topped	-12374
▁upside	-12375
▁�ʿ����	-12376
▁�̸����	-12377
▁�߿���,	-12378
▁�����	-12379
▁�����̺	-12380
▁�����	-12381
Honestly	-12382
pleasant	-12383
▁Bangkok	-12384
▁General	-12385
▁Supreme	-12386
▁adapted	-12387
▁balcony	-12388
▁beliefs	-12389
▁betting	-12390
▁crystal	-12391
▁diagram	-12392
▁editing	-12393
▁episode	-12394
▁farmers	-12395
▁fatigue	-12396
▁federal	-12397
▁females	-12398
▁jumping	-12399
▁mailbox	-12400
▁modules	-12401
▁obesity	-12402
▁removal	-12403
▁restart	-12404
▁retired	-12405
▁rooftop	-12406
▁sausage	-12407
▁skating	-12408
▁sweater	-12409
▁travels	-12410
▁unhappy	-12411
▁utility	-12412
▁zombies	-12413
▁���޵���	-12414
▁�����3�	-12415
▁�����̺�	-12416
▁Pakistan	-12417
▁alphabet	-12418
▁blocking	-12419
▁boundary	-12420
▁catching	-12421
▁conclude	-12422
▁deducted	-12423
▁demanded	-12424
▁deserves	-12425
▁employer	-12426
▁extraord	-12427
▁hotelier	-12428
▁invested	-12429
▁junction	-12430
▁moderate	-12431
▁province	-12432
▁randomly	-12433
▁reporter	-12434
▁terribly	-12435
▁unstable	-12436
▁�ʾ�����.	-12437
▁�˷�����.	-12438
▁���̾���?	-12439
▁���⿡����	-12440
▁Customers	-12441
▁delighted	-12442
▁finalized	-12443
▁formation	-12444
▁graduates	-12445
▁investing	-12446
▁itinerary	-12447
▁miserable	-12448
▁producers	-12449
▁sculpture	-12450
▁underwear	-12451
▁���¿�����	-12452
▁�����̹���	-12453
▁"���������	-12454
▁Management	-12455
▁approached	-12456
▁celebrated	-12457
▁conducting	-12458
▁containers	-12459
▁decoration	-12460
▁determines	-12461
▁incredible	-12462
▁meticulous	-12463
▁relaxation	-12464
▁researched	-12465
▁separation	-12466
▁specialist	-12467
▁tremendous	-12468
▁waterproof	-12469
▁�˼�������,	-12470
▁Development	-12471
▁acknowledge	-12472
▁businessman	-12473
▁encouraging	-12474
▁generations	-12475
▁photographs	-12476
▁photography	-12477
▁publication	-12478
▁�̷���������	-12479
▁alternatives	-12480
▁availability	-12481
▁conservative	-12482
▁contemporary	-12483
▁improvements	-12484
▁negotiations	-12485
FP	-12486
PM	-12487
Pl	-12488
VR	-12489
ka	-12490
sm	-12491
ùķ	-12492
Žǿ	-12493
ǸŴ	-12494
ǽɽ	-12495
ȣȭ	-12496
̹Ƿ	-12497
ٲٱ	-12498
▁,	-12499
�±	-12500
400	-12501
Dep	-12502
Did	-12503
God	-12504
Sim	-12505
ann	-12506
arc	-12507
aze	-12508
exp	-12509
hyd	-12510
isp	-12511
iti	-12512
los	-12513
nex	-12514
sex	-12515
uma	-12516
wam	-12517
wol	-12518
▁37	-12519
▁8,	-12520
▁CI	-12521
▁EA	-12522
▁GS	-12523
▁LP	-12524
▁Py	-12525
▁SI	-12526
▁SO	-12527
▁Sk	-12528
▁īƮ	-12529
⹰��	-12530
��̱	-12531
alid	-12532
atsu	-12533
ifer	-12534
ista	-12535
iven	-12536
kish	-12537
lers	-12538
lest	-12539
ogen	-12540
onto	-12541
step	-12542
▁"10	-12543
▁26�	-12544
▁70%	-12545
▁ECO	-12546
▁Log	-12547
▁Lou	-12548
▁Mer	-12549
▁Mor	-12550
▁Old	-12551
▁PCN	-12552
▁Pet	-12553
▁Ref	-12554
▁Ret	-12555
▁Rub	-12556
▁Tax	-12557
▁Ter	-12558
▁Top	-12559
▁Tri	-12560
▁VAT	-12561
▁Ver	-12562
▁Way	-12563
▁asp	-12564
▁cum	-12565
▁por	-12566
▁�̲�	-12567
▁��¡	-12568
��ʿ�	-12569
���⸦	-12570
Being	-12571
adong	-12572
ankly	-12573
atell	-12574
chron	-12575
erate	-12576
indly	-12577
oured	-12578
riers	-12579
▁1970	-12580
▁Belg	-12581
▁Best	-12582
▁Self	-12583
▁Soon	-12584
▁Stat	-12585
▁Tech	-12586
▁cant	-12587
▁cozy	-12588
▁dyed	-12589
▁elig	-12590
▁gang	-12591
▁malf	-12592
▁muff	-12593
▁negl	-12594
▁pale	-12595
▁stub	-12596
▁tatt	-12597
▁vice	-12598
▁�̲��	-12599
▁�԰�,	-12600
▁���̶	-12601
��°�?	-12602
ateral	-12603
ifully	-12604
͸�����	-12605
▁1,500	-12606
▁Bible	-12607
▁Carol	-12608
▁Cheon	-12609
▁Cross	-12610
▁Event	-12611
▁Macao	-12612
▁Point	-12613
▁Ulsan	-12614
▁audio	-12615
▁bones	-12616
▁clips	-12617
▁drain	-12618
▁flaws	-12619
▁genes	-12620
▁grain	-12621
▁grasp	-12622
▁hyper	-12623
▁immun	-12624
▁reads	-12625
▁reiss	-12626
▁roots	-12627
▁seeds	-12628
▁squat	-12629
▁swear	-12630
▁trunk	-12631
����̱�	-12632
����͸�	-12633
3⁄4���.	-12634
▁2015."	-12635
▁Golden	-12636
▁Martin	-12637
▁Photos	-12638
▁Prince	-12639
▁Remove	-12640
▁analog	-12641
▁baking	-12642
▁basics	-12643
▁carton	-12644
▁consec	-12645
▁copied	-12646
▁dragon	-12647
▁driven	-12648
▁folded	-12649
▁handic	-12650
▁landed	-12651
▁organs	-12652
▁permit	-12653
▁pillow	-12654
▁rescue	-12655
▁satell	-12656
▁smiles	-12657
▁string	-12658
▁tables	-12659
▁theore	-12660
▁timing	-12661
▁traine	-12662
▁turtle	-12663
▁voices	-12664
▁vulner	-12665
▁�⵶����	-12666
▁����""	-12667
kerchief	-12668
wanghwam	-12669
▁Charlie	-12670
▁However	-12671
▁Islamic	-12672
▁Perform	-12673
▁Smoking	-12674
▁Windows	-12675
▁adolesc	-12676
▁amended	-12677
▁browser	-12678
▁circles	-12679
▁clarify	-12680
▁compact	-12681
▁console	-12682
▁cushion	-12683
▁earnest	-12684
▁exclude	-12685
▁infring	-12686
▁keyword	-12687
▁leaking	-12688
▁optimal	-12689
▁reduces	-12690
▁stylish	-12691
▁trivial	-12692
▁viewing	-12693
▁vinegar	-12694
efficient	-12695
▁12������	-12696
▁Airlines	-12697
▁Assembly	-12698
▁Bibimbap	-12699
▁Buddhist	-12700
▁Learning	-12701
▁Mongolia	-12702
▁Studying	-12703
▁activate	-12704
▁allergic	-12705
▁bibimbap	-12706
▁clicking	-12707
▁consumed	-12708
▁coverage	-12709
▁database	-12710
▁displays	-12711
▁disposal	-12712
▁dissatis	-12713
▁enrolled	-12714
▁faithful	-12715
▁feminine	-12716
▁findings	-12717
▁humanity	-12718
▁imagined	-12719
▁laughter	-12720
▁learners	-12721
▁periodic	-12722
▁resulted	-12723
▁sections	-12724
▁siblings	-12725
▁theories	-12726
▁unbeliev	-12727
▁writings	-12728
▁3��������	-12729
▁Chocolate	-12730
▁arguments	-12731
▁cognitive	-12732
▁detection	-12733
▁examining	-12734
▁infection	-12735
▁particles	-12736
▁policeman	-12737
▁publisher	-12738
▁strangely	-12739
▁valuables	-12740
▁vibration	-12741
▁���̰�����	-12742
▁brightness	-12743
▁commitment	-12744
▁downloaded	-12745
▁hamburgers	-12746
▁negligence	-12747
▁parameters	-12748
▁preference	-12749
▁presenting	-12750
▁professors	-12751
▁reflecting	-12752
▁screenshot	-12753
▁�̾�������,	-12754
▁beautifully	-12755
▁communities	-12756
▁contributed	-12757
▁controversy	-12758
▁discussions	-12759
▁distinctive	-12760
▁documentary	-12761
▁orientation	-12762
▁registering	-12763
▁���̵�������	-12764
▁acquaintance	-12765
▁appointments	-12766
▁appreciation	-12767
▁enthusiastic	-12768
▁handkerchief	-12769
▁temperatures	-12770
▁determination	-12771
▁inappropriate	-12772
▁strengthening	-12773
85	-12774
BM	-12775
EE	-12776
Gu	-12777
HR	-12778
HS	-12779
Re	-12780
Te	-12781
yl	-12782
Ǿƴ	-12783
Ϸκ	-12784
▁¡	-12785
▁ų	-12786
�̵	-12787
.��	-12788
2."	-12789
2�⿡	-12790
Bas	-12791
Net	-12792
ako	-12793
buk	-12794
eve	-12795
ggy	-12796
hun	-12797
hye	-12798
iac	-12799
ika	-12800
iko	-12801
isd	-12802
jae	-12803
nce	-12804
net	-12805
ras	-12806
rav	-12807
rum	-12808
uki	-12809
win	-12810
yeo	-12811
▁$9	-12812
▁46	-12813
▁68	-12814
▁AD	-12815
▁MP	-12816
▁Mu	-12817
▁PL	-12818
▁ŰƮ	-12819
▁�޿	-12820
▁�๰	-12821
Keep	-12822
Tell	-12823
ashi	-12824
atar	-12825
cond	-12826
lose	-12827
ogue	-12828
opia	-12829
oven	-12830
park	-12831
quis	-12832
rams	-12833
type	-12834
vard	-12835
yers	-12836
▁"÷�	-12837
▁0.0	-12838
▁60�	-12839
▁Bab	-12840
▁Boy	-12841
▁CAD	-12842
▁Dra	-12843
▁Hak	-12844
▁Ice	-12845
▁KBS	-12846
▁Lim	-12847
▁Low	-12848
▁Mel	-12849
▁POS	-12850
▁Rap	-12851
▁Wil	-12852
▁Yok	-12853
▁ali	-12854
▁bin	-12855
▁chi	-12856
▁fib	-12857
▁jur	-12858
▁ram	-12859
⿡��.	-12860
��׿�	-12861
China	-12862
Their	-12863
after	-12864
archy	-12865
being	-12866
ensus	-12867
erior	-12868
hours	-12869
rings	-12870
umper	-12871
▁Coca	-12872
▁Fact	-12873
▁Gate	-12874
▁Jobs	-12875
▁Nike	-12876
▁Prin	-12877
▁Visa	-12878
▁Yuna	-12879
▁aims	-12880
▁blow	-12881
▁cuts	-12882
▁dict	-12883
▁dign	-12884
▁fame	-12885
▁hood	-12886
▁laid	-12887
▁mesh	-12888
▁oily	-12889
▁oral	-12890
▁rect	-12891
▁reun	-12892
▁rust	-12893
▁sixt	-12894
▁slot	-12895
▁spat	-12896
▁tens	-12897
▁�ʼ��	-12898
▁�˰��	-12899
▁���3	-12900
▁���׼	-12901
Donald	-12902
Follow	-12903
eprint	-12904
everal	-12905
icking	-12906
opping	-12907
ortion	-12908
retion	-12909
school	-12910
▁"�3⁄4	-12911
▁10%��	-12912
▁Champ	-12913
▁Found	-12914
▁Hanoi	-12915
▁Hello	-12916
▁Jeoll	-12917
▁Johns	-12918
▁Kyung	-12919
▁Prime	-12920
▁Share	-12921
▁Trave	-12922
▁Vitam	-12923
▁arise	-12924
▁bears	-12925
▁cafes	-12926
▁cocon	-12927
▁couch	-12928
▁escal	-12929
▁fluid	-12930
▁greed	-12931
▁heels	-12932
▁initi	-12933
▁lands	-12934
▁legis	-12935
▁mosqu	-12936
▁noble	-12937
▁occas	-12938
▁parad	-12939
▁pengu	-12940
▁rival	-12941
▁roads	-12942
▁steal	-12943
▁surge	-12944
▁tempt	-12945
▁toxic	-12946
▁witch	-12947
▁�3⁄4	-12948
▁���񿡼�	-12949
aintiff	-12950
develop	-12951
warming	-12952
▁Bridge	-12953
▁Cheese	-12954
▁Israel	-12955
▁Police	-12956
▁assure	-12957
▁attain	-12958
▁brunch	-12959
▁cables	-12960
▁chores	-12961
▁divers	-12962
▁duplic	-12963
▁equity	-12964
▁farmer	-12965
▁fluctu	-12966
▁frames	-12967
▁fusion	-12968
▁genius	-12969
▁genres	-12970
▁grains	-12971
▁guides	-12972
▁horses	-12973
▁hurric	-12974
▁infant	-12975
▁joking	-12976
▁judges	-12977
▁monkey	-12978
▁neatly	-12979
▁reflex	-12980
▁ribbon	-12981
▁robots	-12982
▁solely	-12983
▁static	-12984
▁steril	-12985
▁swatch	-12986
▁virtue	-12987
▁waking	-12988
▁�̿���.	-12989
▁�׾����	-12990
▁�޾����	-12991
▁�����	-12992
▁���ٰ�.	-12993
▁�����	-12994
Starting	-12995
ensional	-12996
izations	-12997
▁500,000	-12998
▁Teacher	-12999
▁Turkish	-13000
▁bargain	-13001
▁burdens	-13002
▁cartoon	-13003
▁climbed	-13004
▁commute	-13005
▁consume	-13006
▁convert	-13007
▁devoted	-13008
▁dioxide	-13009
▁edition	-13010
▁fitting	-13011
▁gaining	-13012
▁hunting	-13013
▁minimal	-13014
▁neutral	-13015
▁protest	-13016
▁pulling	-13017
▁revenge	-13018
▁segment	-13019
▁seniors	-13020
▁swallow	-13021
▁texting	-13022
▁vending	-13023
▁workout	-13024
▁worship	-13025
Generally	-13026
▁Although	-13027
▁Catholic	-13028
▁Changwon	-13029
▁Creative	-13030
▁Customer	-13031
▁Gyeongju	-13032
▁Identify	-13033
▁Products	-13034
▁barbecue	-13035
▁bicycles	-13036
▁careless	-13037
▁cleanser	-13038
▁compound	-13039
▁contrary	-13040
▁crossing	-13041
▁declined	-13042
▁disorder	-13043
▁drawings	-13044
▁dropping	-13045
▁emerging	-13046
▁entitled	-13047
▁equation	-13048
▁exported	-13049
▁freezing	-13050
▁frequent	-13051
▁graphics	-13052
▁handmade	-13053
▁inserted	-13054
▁minerals	-13055
▁performs	-13056
▁pharmacy	-13057
▁preserve	-13058
▁promoted	-13059
▁provider	-13060
▁reminded	-13061
▁scenario	-13062
▁secretly	-13063
▁volcanic	-13064
▁youngest	-13065
▁�������	-13066
▁accessory	-13067
▁addiction	-13068
▁amendment	-13069
▁blueprint	-13070
▁consisted	-13071
▁developer	-13072
▁dimension	-13073
▁favorable	-13074
▁geography	-13075
▁guideline	-13076
▁qualified	-13077
▁regulated	-13078
▁resembles	-13079
▁resulting	-13080
▁sentiment	-13081
▁�׼�������	-13082
▁���÷�����	-13083
▁���׷��̵��	-13084
▁Elementary	-13085
▁Washington	-13086
▁capability	-13087
▁conceptual	-13088
▁disgusting	-13089
▁forgetting	-13090
▁indication	-13091
▁inevitably	-13092
▁networking	-13093
▁profitable	-13094
▁psychology	-13095
▁reflection	-13096
▁traditions	-13097
▁unpleasant	-13098
▁volunteers	-13099
▁weaknesses	-13100
▁Netherlands	-13101
▁compliments	-13102
▁controlling	-13103
▁incorrectly	-13104
▁investments	-13105
▁merchandise	-13106
▁negotiating	-13107
▁progressive	-13108
▁promotional	-13109
▁reliability	-13110
▁���̾�����."	-13111
▁considerable	-13112
▁respectively	-13113
▁satisfactory	-13114
▁subscription	-13115
▁Gyeongbokgung	-13116
▁architectural	-13117
▁accommodations	-13118
,'	-13119
32	-13120
87	-13121
??	-13122
LS	-13123
Sm	-13124
jo	-13125
pm	-13126
þƴ	-13127
ȵs	-13128
Ⱦƿ	-13129
▁%	-13130
▁Ŵ	-13131
▁Ǭ	-13132
IFA	-13133
Try	-13134
bra	-13135
dog	-13136
ida	-13137
osy	-13138
rud	-13139
sea	-13140
sun	-13141
Ǹŵǰ	-13142
▁03	-13143
▁7,	-13144
▁72	-13145
▁Ap	-13146
▁BI	-13147
▁BT	-13148
▁Bi	-13149
▁ED	-13150
▁PD	-13151
▁RF	-13152
▁Ra	-13153
▁SU	-13154
▁Yi	-13155
▁pH	-13156
��¡	-13157
0000	-13158
abol	-13159
agae	-13160
amel	-13161
cend	-13162
cium	-13163
coat	-13164
foot	-13165
gger	-13166
inch	-13167
kind	-13168
omer	-13169
ooth	-13170
open	-13171
rine	-13172
stan	-13173
star	-13174
▁0��	-13175
▁2~3	-13176
▁60%	-13177
▁80%	-13178
▁Ahn	-13179
▁Ali	-13180
▁Bas	-13181
▁Cle	-13182
▁Dam	-13183
▁EDF	-13184
▁ERP	-13185
▁ETA	-13186
▁Gen	-13187
▁Hyo	-13188
▁NVR	-13189
▁Nex	-13190
▁Opp	-13191
▁Sal	-13192
▁Vir	-13193
▁gam	-13194
▁lap	-13195
▁owe	-13196
▁plu	-13197
▁tum	-13198
▁�˼�	-13199
▁�⻵�	-13200
�̰�,	-13201
5����	-13202
7����	-13203
Again	-13204
bally	-13205
hyeon	-13206
inger	-13207
liers	-13208
lying	-13209
ockey	-13210
ollen	-13211
owner	-13212
party	-13213
paste	-13214
state	-13215
▁22��	-13216
▁28��	-13217
▁2��,	-13218
▁3��,	-13219
▁ASAP	-13220
▁Conc	-13221
▁Cook	-13222
▁Data	-13223
▁Drop	-13224
▁Emma	-13225
▁Hank	-13226
▁Matt	-13227
▁Pack	-13228
▁Plus	-13229
▁Prot	-13230
▁Stay	-13231
▁acne	-13232
▁aged	-13233
▁appe	-13234
▁bree	-13235
▁bulb	-13236
▁cans	-13237
▁cham	-13238
▁clim	-13239
▁deck	-13240
▁eats	-13241
▁eyeb	-13242
▁folk	-13243
▁gamb	-13244
▁glut	-13245
▁grid	-13246
▁heal	-13247
▁hips	-13248
▁murd	-13249
▁nons	-13250
▁nuts	-13251
▁pipe	-13252
▁plag	-13253
▁soda	-13254
▁stap	-13255
▁tear	-13256
▁ties	-13257
▁topp	-13258
▁vain	-13259
▁wolf	-13260
▁���	-13261
��̽��	-13262
���̵�	-13263
���԰�	-13264
���ٰ�	-13265
Indeed	-13266
ashing	-13267
atient	-13268
daemun	-13269
echeon	-13270
irable	-13271
omfort	-13272
ounced	-13273
redict	-13274
rupted	-13275
uckily	-13276
uminum	-13277
▁2014.	-13278
▁300��	-13279
▁Avoid	-13280
▁Below	-13281
▁Haven	-13282
▁Incre	-13283
▁Jason	-13284
▁Marie	-13285
▁Organ	-13286
▁Rober	-13287
▁Watch	-13288
▁Whose	-13289
▁arbit	-13290
▁bunch	-13291
▁burnt	-13292
▁chili	-13293
▁crash	-13294
▁dated	-13295
▁deleg	-13296
▁drone	-13297
▁etiqu	-13298
▁explo	-13299
▁gloss	-13300
▁grant	-13301
▁marsh	-13302
▁pearl	-13303
▁pleas	-13304
▁query	-13305
▁races	-13306
▁remit	-13307
▁repay	-13308
▁roses	-13309
▁sauna	-13310
▁saves	-13311
▁sends	-13312
▁setup	-13313
▁slice	-13314
▁snowy	-13315
▁swing	-13316
▁tombs	-13317
▁vital	-13318
▁wages	-13319
▁���޸�	-13320
▁����	-13321
2������	-13322
ropical	-13323
ropract	-13324
workers	-13325
▁"�̽���	-13326
▁17����	-13327
▁Change	-13328
▁Prague	-13329
▁Temple	-13330
▁aliens	-13331
▁cracks	-13332
▁crispy	-13333
▁crunch	-13334
▁cutlet	-13335
▁decade	-13336
▁denied	-13337
▁discon	-13338
▁drying	-13339
▁immune	-13340
▁jumped	-13341
▁lenses	-13342
▁messed	-13343
▁polish	-13344
▁prayer	-13345
▁refuge	-13346
▁routes	-13347
▁sesame	-13348
▁shield	-13349
▁shines	-13350
▁stitch	-13351
▁tragic	-13352
▁warmth	-13353
▁�׸���.	-13354
▁�߾���?	-13355
▁���̾�,	-13356
▁���̾�?	-13357
breaking	-13358
▁300,000	-13359
▁9������	-13360
▁Account	-13361
▁Bulgogi	-13362
▁Connect	-13363
▁Employe	-13364
▁Environ	-13365
▁Library	-13366
▁arguing	-13367
▁assault	-13368
▁attacks	-13369
▁autonom	-13370
▁beating	-13371
▁blossom	-13372
▁categor	-13373
▁cousins	-13374
▁declare	-13375
▁filters	-13376
▁flowing	-13377
▁founder	-13378
▁grounds	-13379
▁harness	-13380
▁infants	-13381
▁interfe	-13382
▁longest	-13383
▁natives	-13384
▁phrases	-13385
▁privile	-13386
▁pumpkin	-13387
▁soybean	-13388
▁targets	-13389
▁vanilla	-13390
▁welding	-13391
▁�3⁄4��	-13392
▁���̰���	-13393
▁���̱���	-13394
▁�����߿�	-13395
▁�����󿡼�	-13396
cientists	-13397
fortunate	-13398
▁"�׷�����	-13399
▁Independ	-13400
▁Insadong	-13401
▁abnormal	-13402
▁annually	-13403
▁athletic	-13404
▁bankrupt	-13405
▁brochure	-13406
▁clinical	-13407
▁connects	-13408
▁costumes	-13409
▁deposits	-13410
▁deterior	-13411
▁diameter	-13412
▁eligible	-13413
▁ignoring	-13414
▁landlord	-13415
▁maximize	-13416
▁millions	-13417
▁obsessed	-13418
▁offended	-13419
▁parallel	-13420
▁promptly	-13421
▁protagon	-13422
▁regarded	-13423
▁seasonal	-13424
▁smallest	-13425
▁sneakers	-13426
▁stereoty	-13427
▁stubborn	-13428
▁survived	-13429
▁unreason	-13430
▁updating	-13431
▁���±���.	-13432
▁1,000����	-13433
▁Challenge	-13434
▁Gwanghwam	-13435
▁algorithm	-13436
▁centuries	-13437
▁chemicals	-13438
▁departing	-13439
▁etiquette	-13440
▁explosion	-13441
▁followers	-13442
▁integrity	-13443
▁medicines	-13444
▁motivated	-13445
▁retention	-13446
▁strongest	-13447
▁subtitles	-13448
▁supplying	-13449
▁�ʼ�������	-13450
▁�����̼���	-13451
▁������'��	-13452
▁�������̿�	-13453
▁Government	-13454
▁competence	-13455
▁consultant	-13456
▁discomfort	-13457
▁enthusiasm	-13458
▁intentions	-13459
▁obligation	-13460
▁reconsider	-13461
▁recruiting	-13462
▁researcher	-13463
▁�����߾���?	-13464
▁Corporation	-13465
▁assumptions	-13466
▁correlation	-13467
▁exclusively	-13468
▁functioning	-13469
▁highlighted	-13470
▁substantial	-13471
▁transformed	-13472
▁translators	-13473
▁unfortunate	-13474
▁Constitution	-13475
▁arrangements	-13476
▁conventional	-13477
▁destinations	-13478
▁dramatically	-13479
▁demonstration	-13480
▁extraordinary	-13481
▁unfortunately	-13482
▁�����̾�����."	-13483
▁accomplishment	-13484
▁authentication	-13485
33	-13486
AA	-13487
Ad	-13488
CP	-13489
EF	-13490
IV	-13491
PR	-13492
Tr	-13493
fr	-13494
mg	-13495
üȭ	-13496
ĵǾ	-13497
ǹǷ	-13498
ǽü	-13499
ɷȴ	-13500
̴Θ	-13501
մԿ	-13502
̴ּ	-13503
޵�	-13504
▁ÿ	-13505
⿡,	-13506
AAD	-13507
Com	-13508
EST	-13509
Hye	-13510
Lee	-13511
ena	-13512
non	-13513
pin	-13514
rer	-13515
tem	-13516
yen	-13517
▁"3	-13518
▁"8	-13519
▁63	-13520
▁8.	-13521
▁Du	-13522
▁EL	-13523
▁NS	-13524
▁km	-13525
▁öȸ	-13526
▁ͅ信	-13527
▁�׽	-13528
▁�	-13529
�÷�	-13530
.5��	-13531
Come	-13532
Dong	-13533
Four	-13534
Life	-13535
Love	-13536
Norm	-13537
acco	-13538
angs	-13539
egas	-13540
enza	-13541
erer	-13542
ford	-13543
fund	-13544
hors	-13545
icks	-13546
iser	-13547
juku	-13548
ldom	-13549
lude	-13550
rons	-13551
stra	-13552
ugby	-13553
ymph	-13554
ʺ���	-13555
׺���	-13556
▁$20	-13557
▁140	-13558
▁15-	-13559
▁19�	-13560
▁25%	-13561
▁900	-13562
▁Age	-13563
▁Ari	-13564
▁Cir	-13565
▁Din	-13566
▁ETD	-13567
▁Eth	-13568
▁FDA	-13569
▁Gar	-13570
▁KTX	-13571
▁MTS	-13572
▁Mat	-13573
▁Mem	-13574
▁Ora	-13575
▁Rev	-13576
▁Sem	-13577
▁Sep	-13578
▁TTF	-13579
▁TVI	-13580
▁Yet	-13581
▁ion	-13582
▁jet	-13583
▁mug	-13584
▁pix	-13585
▁poo	-13586
▁pud	-13587
▁twe	-13588
▁unw	-13589
▁īǪġ	-13590
▁́�?	-13591
��޴�	-13592
000��	-13593
Think	-13594
bably	-13595
chain	-13596
icons	-13597
licop	-13598
quest	-13599
▁"201	-13600
▁"�̸�	-13601
▁$500	-13602
▁Andy	-13603
▁Aven	-13604
▁FIFA	-13605
▁Fast	-13606
▁Fred	-13607
▁Iran	-13608
▁Jess	-13609
▁Kate	-13610
▁Mass	-13611
▁Mult	-13612
▁Pers	-13613
▁Prem	-13614
▁Room	-13615
▁Sand	-13616
▁Skin	-13617
▁Thus	-13618
▁Trad	-13619
▁Well	-13620
▁bent	-13621
▁blur	-13622
▁bugs	-13623
▁burg	-13624
▁deny	-13625
▁desp	-13626
▁diff	-13627
▁dual	-13628
▁enzy	-13629
▁gene	-13630
▁puff	-13631
▁rack	-13632
▁scal	-13633
▁solo	-13634
▁sons	-13635
▁span	-13636
▁tort	-13637
▁tumb	-13638
▁vast	-13639
▁wifi	-13640
▁���׵	-13641
Americ	-13642
acious	-13643
ersion	-13644
icular	-13645
olitan	-13646
onight	-13647
screen	-13648
worthy	-13649
ziness	-13650
▁2014,	-13651
▁2017,	-13652
▁6,000	-13653
▁Angel	-13654
▁Broad	-13655
▁Fried	-13656
▁Impro	-13657
▁Major	-13658
▁Maria	-13659
▁Myung	-13660
▁Quest	-13661
▁Saint	-13662
▁Sarah	-13663
▁Susan	-13664
▁THAAD	-13665
▁amate	-13666
▁broth	-13667
▁buses	-13668
▁cheek	-13669
▁chore	-13670
▁codes	-13671
▁crops	-13672
▁enlar	-13673
▁erase	-13674
▁facil	-13675
▁fatal	-13676
▁ferry	-13677
▁forum	-13678
▁grave	-13679
▁hates	-13680
▁holog	-13681
▁hopes	-13682
▁infer	-13683
▁lunar	-13684
▁ought	-13685
▁poems	-13686
▁pouch	-13687
▁reimb	-13688
▁shaft	-13689
▁shiny	-13690
▁ships	-13691
▁snake	-13692
▁stake	-13693
▁tribe	-13694
▁twent	-13695
▁valve	-13696
▁¡����	-13697
����̴�	-13698
Welcome	-13699
Whether	-13700
chedule	-13701
iratory	-13702
itality	-13703
ocation	-13704
osition	-13705
othered	-13706
parents	-13707
respons	-13708
rolling	-13709
vestock	-13710
▁16����	-13711
▁2016."	-13712
▁Advert	-13713
▁Castle	-13714
▁Kindly	-13715
▁Marine	-13716
▁Muslim	-13717
▁Sejong	-13718
▁Soccer	-13719
▁Summer	-13720
▁acquis	-13721
▁agents	-13722
▁argued	-13723
▁attent	-13724
▁breach	-13725
▁danced	-13726
▁darker	-13727
▁exting	-13728
▁jurisd	-13729
▁liable	-13730
▁marble	-13731
▁molecu	-13732
▁nurses	-13733
▁offend	-13734
▁prints	-13735
▁rented	-13736
▁reside	-13737
▁revers	-13738
▁ripped	-13739
▁rolled	-13740
▁sacred	-13741
▁seldom	-13742
▁sprink	-13743
▁staffs	-13744
▁struck	-13745
▁subord	-13746
▁tunnel	-13747
▁uneasy	-13748
▁�̰����	-13749
▁�̿����	-13750
▁���̶��	-13751
���̳���	-13752
ppuccino	-13753
▁Chapter	-13754
▁Culture	-13755
▁Eastern	-13756
▁History	-13757
▁Holiday	-13758
▁Mukbang	-13759
▁Richard	-13760
▁Tourism	-13761
▁Vitamin	-13762
▁Working	-13763
▁avoided	-13764
▁balloon	-13765
▁beloved	-13766
▁bidding	-13767
▁blessed	-13768
▁blowing	-13769
▁calcium	-13770
▁captain	-13771
▁charity	-13772
▁checkup	-13773
▁coconut	-13774
▁daytime	-13775
▁dignity	-13776
▁dismiss	-13777
▁dispose	-13778
▁dresses	-13779
▁haircut	-13780
▁helicop	-13781
▁hosting	-13782
▁kingdom	-13783
▁legally	-13784
▁manages	-13785
▁museums	-13786
▁precaut	-13787
▁sensors	-13788
▁signals	-13789
▁skilled	-13790
▁tightly	-13791
▁tissues	-13792
▁writers	-13793
▁�3���?"	-13794
▁�̶�����	-13795
▁���̸���	-13796
���̾����	-13797
Basically	-13798
Depending	-13799
condition	-13800
ividually	-13801
▁Administ	-13802
▁Attached	-13803
▁Congress	-13804
▁Consider	-13805
▁Infinite	-13806
▁McDonald	-13807
▁Services	-13808
▁cellular	-13809
▁childish	-13810
▁commemor	-13811
▁confront	-13812
▁deceased	-13813
▁dispatch	-13814
▁distract	-13815
▁dumpling	-13816
▁educated	-13817
▁enhances	-13818
▁geograph	-13819
▁infinite	-13820
▁mushroom	-13821
▁perceive	-13822
▁seasoned	-13823
▁socially	-13824
▁stopping	-13825
▁subscrib	-13826
▁sympathy	-13827
▁synchron	-13828
▁triangle	-13829
▁watermel	-13830
▁���¿���.	-13831
▁�����߾��	-13832
girlfriend	-13833
▁Companies	-13834
▁addressed	-13835
▁assembled	-13836
▁collapsed	-13837
▁combining	-13838
▁competing	-13839
▁convinced	-13840
▁diligence	-13841
▁discarded	-13842
▁emphasize	-13843
▁exporting	-13844
▁housework	-13845
▁incidents	-13846
▁inflation	-13847
▁irregular	-13848
▁leftovers	-13849
▁livestock	-13850
▁mushrooms	-13851
▁paperwork	-13852
▁postponed	-13853
▁pregnancy	-13854
▁pronounce	-13855
▁satellite	-13856
▁tolerance	-13857
▁�޽�������	-13858
▁accessible	-13859
▁assembling	-13860
▁biological	-13861
▁boundaries	-13862
▁collective	-13863
▁competitor	-13864
▁compulsory	-13865
▁contractor	-13866
▁correcting	-13867
▁democratic	-13868
▁healthcare	-13869
▁immigrants	-13870
▁landscapes	-13871
▁remarkable	-13872
▁signatures	-13873
▁subjective	-13874
▁worthwhile	-13875
▁�̷��������	-13876
▁�����̾���?	-13877
▁Pyeongchang	-13878
▁authorities	-13879
▁complaining	-13880
▁earthquakes	-13881
▁electronics	-13882
▁malfunction	-13883
▁protagonist	-13884
▁ventilation	-13885
▁���������̼�	-13886
▁implications	-13887
▁interactions	-13888
▁intersection	-13889
▁investigated	-13890
▁overwhelming	-13891
▁presidential	-13892
▁�����߾�����.	-13893
▁compatibility	-13894
▁comprehensive	-13895
▁investigating	-13896
/�	-13897
6�	-13898
88	-13899
Bl	-13900
TR	-13901
vi	-13902
ǽǿ	-13903
ȣȸ	-13904
˷�	-13905
▁Ų	-13906
.'"	-13907
Rem	-13908
Who	-13909
add	-13910
aks	-13911
bar	-13912
eun	-13913
nas	-13914
osc	-13915
pei	-13916
rix	-13917
uan	-13918
xid	-13919
yan	-13920
yuk	-13921
▁56	-13922
▁88	-13923
▁BS	-13924
▁CE	-13925
▁CH	-13926
▁Fu	-13927
▁Ko	-13928
▁Ku	-13929
▁NO	-13930
▁RS	-13931
▁Ru	-13932
▁TD	-13933
▁VI	-13934
▁WH	-13935
▁hu	-13936
▁kg	-13937
▁ȭâ	-13938
��	-13939
20��	-13940
Nice	-13941
Park	-13942
amba	-13943
date	-13944
dium	-13945
fire	-13946
igan	-13947
izzy	-13948
lesc	-13949
obia	-13950
odes	-13951
omas	-13952
orak	-13953
orts	-13954
osun	-13955
rose	-13956
trip	-13957
udge	-13958
ults	-13959
unge	-13960
urer	-13961
zzle	-13962
▁"�̹	-13963
▁101	-13964
▁193	-13965
▁29�	-13966
▁Bon	-13967
▁DCS	-13968
▁Def	-13969
▁Ens	-13970
▁Est	-13971
▁Gym	-13972
▁Hum	-13973
▁Imm	-13974
▁Jam	-13975
▁Jon	-13976
▁Las	-13977
▁Mir	-13978
▁Mok	-13979
▁Mot	-13980
▁Nag	-13981
▁Ray	-13982
▁Rod	-13983
▁Ron	-13984
▁THW	-13985
▁Tak	-13986
▁Tap	-13987
▁Ted	-13988
▁Too	-13989
▁Wol	-13990
▁fet	-13991
▁gut	-13992
▁ker	-13993
▁nit	-13994
▁sla	-13995
▁tub	-13996
▁vou	-13997
▁vow	-13998
▁£��	-13999
▁�⻵.	-14000
���	-14001
��̷�	-14002
��߾�	-14003
Above	-14004
amina	-14005
aning	-14006
eller	-14007
gener	-14008
heast	-14009
idges	-14010
istor	-14011
nings	-14012
nival	-14013
oline	-14014
opped	-14015
othes	-14016
ritis	-14017
third	-14018
uters	-14019
ville	-14020
▁"÷��	-14021
▁"�̿�	-14022
[...]
